[PAD]
[UNK]
[CLS]
[SEP]
[MASK]
!
#
$
%
&
'
(
)
*
+
,
-
.
/
0
1
2
3
4
5
6
7
8
9
:
;
<
=
>
?
@
[
\
]
^
`
a
b
c
d
e
f
g
h
i
j
k
l
m
n
o
p
q
r
s
t
u
v
w
x
y
z
{
|
}
~
¡
¢
£
¤
¥
¦
§
¨
©
ª
«
¬
®
°
±
²
³
´
µ
¶
·
¸
¹
º
»
¼
½
¾
¿
×
ß
æ
ð
÷
ø
đ
ı
ł
œ
ƒ
ɑ
ʮ
ʻ
ʼ
˚
α
β
γ
δ
ε
η
θ
ι
κ
λ
μ
ν
ο
π
ρ
ς
σ
τ
υ
φ
χ
ω
а
б
в
г
д
е
ж
з
и
к
л
м
н
о
п
р
с
т
у
ф
х
ц
ч
ш
щ
ъ
ы
ь
э
ю
я
ѕ
і
ғ
қ
ң
ү
ұ
һ
ә
ө
ա
բ
գ
դ
ե
զ
է
ը
թ
ժ
ի
լ
խ
ծ
կ
հ
ձ
ղ
մ
յ
ն
շ
ո
չ
պ
ջ
ռ
ս
վ
տ
ր
ց
ւ
փ
ք
օ
և
א
ב
ג
ד
ה
ו
ז
ח
ט
י
ך
כ
ל
ם
מ
ן
נ
ס
ע
ף
פ
ץ
צ
ק
ר
ש
ת
،
؛
؟
ء
ا
ب
ة
ت
ث
ج
ح
خ
د
ذ
ر
ز
س
ش
ص
ض
ط
ظ
ع
غ
ـ
ف
ق
ك
ل
م
ن
ه
و
ى
ي
٪
ٹ
پ
چ
ک
گ
ں
ھ
ہ
ی
ے
۔
अ
इ
ए
क
ग
च
ज
ट
त
थ
द
न
प
ब
भ
म
य
र
ल
व
श
ष
स
ह
ा
ि
ी
ो
ก
ง
ด
ต
ท
น
บ
ม
ย
ร
ล
ว
ส
ห
อ
า
เ
་
ᄀ
ᄂ
ᄃ
ᄅ
ᄆ
ᄇ
ᄉ
ᄋ
ᄌ
ᄎ
ᄏ
ᄐ
ᄑ
ᄒ
ᅡ
ᅢ
ᅣ
ᅥ
ᅦ
ᅧ
ᅩ
ᅪ
ᅬ
ᅭ
ᅮ
ᅯ
ᅱ
ᅲ
ᅳ
ᅴ
ᅵ
ᆨ
ᆫ
ᆮ
ᆯ
ᆷ
ᆸ
ᆺ
ᆻ
ᆼ
ᆽ
‐
‑
‒
–
—
―
‖
‘
’
“
”
„
†
‡
•
…
′
″
›
※
⁎
₂
₩
€
₹
⃣
℃
℠
™
↑
→
∆
−
∗
∙
√
∼
≤
≥
⊕
⋅
─
┏
═
■
▪
▲
△
▶
►
▼
◆
○
●
★
☐
☒
♀
♂
♦
⚠
✅
✓
✔
✨
❤
➔
➡
➢
⠀
⦿
⬇
、
。
《
》
「
」
【
】
あ
い
う
え
お
か
き
く
け
こ
さ
し
す
せ
た
っ
つ
て
と
な
に
の
は
へ
ま
め
も
よ
ら
り
る
れ
わ
を
ん
ア
イ
ウ
オ
カ
キ
ク
コ
サ
シ
ス
ッ
テ
ト
ナ
ハ
ヒ
フ
ホ
マ
ラ
リ
ル
レ
ロ
ン
・
ー
㻌
䚷
䛻
䞁
䞊
䠄
䠅
一
万
三
上
下
不
与
且
世
业
两
个
中
临
为
主
举
么
义
之
乌
乎
也
了
争
事
二
于
亚
些
交
产
京
人
亿
仅
今
仍
从
他
代
令
以
们
价
任
份
企
伊
会
传
似
但
位
低
体
何
作
使
例
供
俄
保
信
候
债
做
元
克
党
入
全
公
兰
共
关
其
内
再
冠
决
况
几
出
分
划
则
创
利
到
制
前
力
加
务
动
助
势
動
包
化
北
区
十
协
南
印
危
即
却
原
去
及
反
发
取
受
变
口
只
可
司
各
合
同
名
后
向
否
告
员
命
和
品
响
售
商
回
因
国
國
團
在
地
场
型
基
境
增
复
外
多
大
天
央
失
好
如
始
委
子
字
存
学
它
安
定
实
家
容
富
对
导
将
小
少
尔
尚
就
尽
展
州
工
已
巴
币
市
布
常
平
年
并
应
府
度
建
开
式
引
强
当
影
很
得
德
心
必
性
总
息
情
想
意
感
成
我
或
战
所
手
承
技
投
报
拉
拜
括
持
指
据
接
控
推
提
支
收
改
放
政
教
数
文
断
斯
新
方
施
无
日
时
明
易
是
显
普
更
最
月
有
服
朗
期
未
本
机
权
来
東
极
构
林
果
标
样
核
格
業
模
機
次
欧
止
正
此
步
毒
比
民
气
水
求
没
油
治
法
洲
活
流
济
海
消
深
源
点
然
物
特
状
率
现
球
理
環
生
用
由
界
疫
病
登
發
的
盟
目
直
相
着
知
石
确
示
社
禁
福
种
科
程
立
第
等
策
管
系
约
组
经
结
统
续
罗
美
者
而
联
股
胀
能
自
至
致
苗
英
華
融
行
表
被
裁
西
要
見
观
规
解
言
计
认
让
议
许
论
设
识
该
说
调
資
货
贸
费
资
起
越
路
转
达
过
近
还
这
进
退
选
通
速
造
道
那
部
都
里
重
量
金
银
长
開
问
间
阿
际
限
院
除
险
难
集
零
電
需
非
面
项
预
领
题
风
首
马
高
ﬀ
ﬁ
ﬂ
％
（
）
＋
，
－
：
？
🇦
🇧
🇪
🇬
🇮
🇷
🇸
🇹
🇺
🏻
🏼
🏽
🏾
👇
👉
👏
💙
💪
🔥
😂
😉
😭
🙂
🙌
🙏
🚨
🚴
##n
##t
##e
##s
##i
##y
##5
##u
##r
##o
##c
##k
##a
##h
##m
##b
##p
##l
##g
##1
##4
##q
##0
##3
##v
##z
##d
##о
##н
##и
##м
##а
##е
##2
##w
##j
##f
##7
##9
##8
##в
##у
##ю
##ذ
##ا
##ک
##ر
##ت
##6
##ل
##ن
##ش
##ط
##ة
##x
##ق
##م
##ц
##ح
##ث
##ب
##л
##я
##ж
##د
##ه
##ғ
##ы
##و
##ج
##ز
##ي
##ف
##ʼ
##س
##ع
##غ
##א
##י
##ב
##ד
##ו
##з
##к
##х
##д
##स
##ा
##न
##👏
##た
##ك
##щ
##г
##ι
##ε
##υ
##θ
##ν
##σ
##η
##ł
##™
##մ
##ս
##ո
##վ
##п
##с
##т
##®
##🏼
##р
##і
##տ
##ր
##ա
##լ
##ի
##ն
##ט
##ר
##ם
##հ
##ջ
##ե
##ע
##ь
##ш
##ı
##б
##¸
##═
##ᅵ
##ᄃ
##ᅢ
##ᄀ
##ᅡ
##ח
##נ
##ת
##خ
##ص
##ᅮ
##ᅳ
##ᆯ
##ᄋ
##ᆫ
##▪
##æ
##מ
##ה
##ᅱ
##ᆺ
##ᄇ
##ᆮ
##ᄎ
##ᆷ
##ᄒ
##ժ
##ւ
##ը
##🇺
##🇦
##ן
##ø
##ہ
##گ
##ض
##£
##ү
##ᅥ
##ᆨ
##э
##ـ
##−
##ﬁ
##פ
##ס
##כ
##ᄉ
##ᅣ
##ے
##ᄌ
##ᄆ
##պ
##つ
##の
##צ
##ל
##ч
##ς
##ᅧ
##ᆼ
##ᅩ
##δ
##ф
##🚨
##ら
##©
##♀
##ъ
##қ
##º
##թ
##յ
##´
##¹
##ظ
##°
##ש
##ま
##し
##う
##ᄐ
##ᄅ
##¾
##な
##っ
##ծ
##ק
##ң
##🏾
##ᄑ
##ք
##τ
##α
##よ
##に
##ᅦ
##շ
##ᅯ
##ห
##ก
##เ
##า
##น
##ท
##บ
##ร
##∗
##≥
##¬
##त
##ी
##ρ
##ο
##κ
##λ
##💙
##ء
##ウ
##ー
##ン
##ク
##ア
##ッ
##フ
##を
##ٹ
##ھ
##ル
##シ
##²
##か
##カ
##オ
##ʮ
##✅
##💪
##±
##ө
##ス
##ト
##ग
##क
##र
##€
##ی
##ں
##ᅲ
##ß
##て
##い
##く
##こ
##と
##կ
##զ
##դ
##►
##✨
##ᄂ
##ᅴ
##ռ
##ղ
##⋅
##գ
##ұ
##¢
##あ
##り
##½
##ω
##ى
##ז
##ᅪ
##る
##ハ
##🏻
##ɑ
##→
##👉
##π
##¥
##φ
##¤
##↑
##भ
##օ
##μ
##も
##ձ
##բ
##ց
##ג
##🇹
##⃣
##य
##व
##थ
##ो
##ि
##म
##ᅬ
##≤
##ᆸ
##ᆻ
##は
##×
##れ
##⚠
##き
##🔥
##す
##श
##¦
##µ
##˚
##め
##խ
##ᅭ
##อ
##ך
##χ
##ѕ
##œ
##🇬
##ә
##đ
##マ
##イ
##テ
##չ
##ष
##ट
##ต
##🙏
##け
##һ
##ラ
##ﬂ
##ª
##❤
##℠
##ᆽ
##●
##コ
##リ
##ð
##➡
##ロ
##ヒ
##★
##ף
##🇪
##👇
##せ
##ん
##β
##ว
##ม
##¼
##🇧
##▶
##⠀
##प
##द
##¨
##🇷
##ง
##ᄏ
##さ
##³
##🏽
##お
##♂
##わ
##ल
##⬇
##🚴
##─
##ﬀ
##✓
##ホ
##ब
##∼
##ʻ
##ナ
##レ
##և
##ล
##ज
##🇮
##サ
##🇸
##փ
##÷
##γ
##ץ
##ह
##च
##چ
##🙌
##▼
##へ
##ƒ
##✔
##√
##∙
##○
##ए
##😉
##इ
##キ
##☐
##😂
##😭
##₂
##ส
##ย
##え
##پ
##ด
##℃
##➔
##է
##＋
##△
##☒
##∆
##■
##⊕
##🙂
##अ
th
##er
##in
the
##on
##es
##or
##at
##en
##nd
##ed
##ar
##ing
##al
in
##an
to
##it
of
and
##ion
##ic
##ou
##is
##as
##om
##re
##ent
##il
##ec
##el
##id
##et
##ro
##st
##ac
##ur
for
re
st
##ut
##ve
##le
on
##ir
##ation
##th
##ly
##ay
##ol
##ers
##ts
wh
##ig
##ow
is
that
##ad
be
as
##em
##us
com
con
##ill
##ver
an
pro
##ter
##ot
##ith
##os
##ch
##est
##im
with
##ess
##ce
al
##am
we
##ul
ex
##ect
##ment
20
sh
ch
##and
ne
##ies
fr
it
at
are
##iv
##op
su
##ate
tr
##ld
ha
##pp
##ain
##oc
##ort
##ear
sa
by
##ity
##ag
##ere
co
pr
##ab
de
ac
##ial
or
##ore
comp
he
##igh
from
##mp
##ive
##ak
have
res
##ust
##se
##if
inc
you
wor
has
this
##vid
said
mar
un
ad
##un
se
##ist
was
##od
##ap
not
##ud
##uc
##art
cou
##um
##ions
202
en
go
will
##ant
exp
le
sp
##ome
ab
##lo
##ast
cont
##av
pl
more
##end
new
##ine
##act
year
##ue
##all
##ated
19
##rou
##ib
##any
rep
but
##ther
##ks
rec
us
##ket
our
can
##ans
##out
##ell
cl
##ure
##ge
##ard
its
##ie
##qu
##ff
out
##ich
covid
per
##ip
##ia
##ost
they
their
##gh
up
##ents
##iz
all
##ations
##ong
qu
am
##illion
market
##ical
##are
##ase
ind
##00
me
pe
##able
imp
acc
cor
##irus
##ance
##orm
##ight
off
##our
##ack
##ber
op
##nt
##og
mon
##ik
ag
##ely
##ould
which
##ok
inf
dis
##ail
##ice
##anc
##so
##ub
##ors
work
fin
##ry
app
been
int
##age
peop
than
people
af
##ose
##ous
##duc
tim
also
cr
so
inv
str
who
##ence
about
part
comm
were
##ord
over
##ary
##ven
2020
##alth
inter
##tion
##own
rel
##ates
##emic
##ities
do
##ays
##ire
pre
dec
##ign
##ace
other
201
##day
there
##oll
fir
company
##ile
##lud
health
lo
##lic
##vel
bus
no
bo
##ake
br
pand
##ens
million
one
report
##ally
ar
pandemic
##ings
##iness
if
##ital
ser
##ition
cons
##ach
##ide
lik
supp
sc
coron
man
some
business
dr
##enc
##ond
sec
##avirus
had
##row
coronavirus
##con
how
##acc
includ
high
invest
after
may
##ock
fe
ass
would
##ech
count
##ult
reg
time
vacc
##ep
##ish
add
##ath
##ments
##erm
produc
##old
und
tw
ris
first
##ement
##uring
##ased
##vern
pub
cas
govern
econ
##ating
econom
his
when
##fer
bec
##ite
##ices
##ian
what
##gr
##one
##aus
##ree
wee
##ame
##ert
jo
##ric
act
##ass
could
sy
pres
month
##ey
pol
##ected
##very
these
em
glo
ear
world
hel
##ational
need
now
glob
##ility
##aly
##ang
get
under
##ines
rem
any
##ss
your
dat
incre
cap
pos
end
resp
##ual
eff
ph
##pt
la
mo
serv
dem
##form
el
##ade
quar
##ures
##ory
##bs
##und
##ues
##rough
like
oper
##ct
##ild
med
##eth
##olog
##ound
most
grow
10
tech
into
##rop
min
ret
data
##reat
##ited
##ious
te
grou
sch
##ink
bet
while
financ
trans
##ough
des
last
##ific
just
provid
##urn
##read
##earch
##urr
global
them
##ied
contin
she
##loy
many
##arg
government
bu
2021
eu
during
##iss
analy
ro
two
##rib
del
##ause
lead
sur
##amp
##ump
through
##ection
see
help
ann
000
fl
back
##ick
stud
##ina
##erg
quarter
those
sal
##ting
aut
##ug
group
##pr
stat
prot
##velop
gen
po
##ident
week
look
research
financial
##ward
develop
ev
well
ban
such
##ning
##gan
##ra
##ross
including
indust
##io
cent
##ics
emp
public
techn
pat
##iew
rest
##eric
##oun
par
dif
num
long
sign
net
att
##ange
##ise
only
down
even
again
test
##ince
americ
##ater
years
manag
kn
##fore
fund
bl
inst
curr
##mm
compan
##ative
##cess
share
##ible
##ower
##int
adv
call
##orts
##ind
dep
##we
##its
companies
car
support
term
##xt
because
news
##ons
2019
##line
use
gr
##ivers
##itt
her
##ery
where
sm
est
dire
accord
##uch
prof
ma
china
soc
##wn
##ember
day
##ency
inform
##ved
##ced
home
##eral
cases
since
##ene
ins
every
requ
##stem
##round
before
##eng
virus
pers
##aking
##ential
billion
vaccine
don
##ier
##les
##ries
cost
air
should
dist
##ient
president
##ior
country
12
av
offic
##ives
##ood
pay
val
##ft
gu
being
red
bel
start
according
make
direct
show
30
plan
##ands
state
cust
system
mod
current
##ru
technolog
still
based
##ared
care
##ount
##ix
prev
employ
##ets
my
exper
risk
growth
custom
impact
##ients
progr
##cent
##ving
##ults
##tions
##ull
equ
los
##ular
sales
disc
ve
says
##ern
##ful
commun
##ights
months
##ork
iss
##ollow
##ax
##ects
##ral
##ief
intern
follow
##air
##ily
appro
second
stock
11
##ution
fac
form
information
##als
id
take
##reak
around
europ
meas
det
think
##ease
sl
three
15
europe
fut
number
industry
own
##une
differ
march
##ether
set
organ
conf
much
demand
states
##iod
dig
##osp
##ateg
sol
##rol
recent
level
shar
ant
##res
going
ext
found
trump
##ween
economic
services
very
secur
between
##ool
access
##ants
##hip
across
period
due
##down
bank
var
big
say
##led
##ision
team
non
##uss
##ress
social
announ
play
reven
sub
##lish
read
against
results
saf
remain
##urs
way
person
loc
##ps
fact
next
##ience
##ials
percent
def
rev
war
polic
##ertain
prop
##ements
partic
cre
conc
spec
##osed
good
both
did
tot
countries
auth
made
##ject
real
##itive
##ering
looking
hosp
ke
##az
##bers
imm
##verage
reported
##ists
hospital
13
future
##emp
national
trav
##let
##ouse
sen
top
income
child
sim
##ized
14
lif
##yp
sever
##ict
##ves
school
open
##atch
##ization
know
cris
ord
##ised
##iven
import
opp
here
analys
post
digital
mas
ref
addition
far
aff
##man
##ling
##ner
capital
then
##land
##ined
fur
##gin
##ister
cle
program
##ble
total
hum
pot
##ron
days
fed
rece
patients
##tt
##dit
adm
fam
##ically
eng
coll
##ety
return
technology
maj
##ivid
strateg
want
##ead
##ee
cash
management
##ever
##ered
four
lim
effect
sou
31
main
##tern
pop
##ests
trad
activ
chang
##ecut
crisis
ob
workers
##sp
loss
##ars
same
##ends
##ces
face
told
major
less
increase
expected
##ission
law
travel
##uct
##ov
##elf
##ize
deli
near
##ees
##aff
##ration
analysis
25
allow
uk
meet
18
united
##other
##ms
tax
##ason
right
press
col
##ially
spread
##iel
##ately
record
economy
##ying
potential
interest
working
##ready
##ending
16
sit
death
already
june
##ocus
forward
continue
author
##te
change
bro
##ued
nor
consum
##iving
control
related
##ren
##ability
among
low
lock
##bo
perform
##ention
focus
does
process
keep
house
##hold
cour
markets
##iversity
##med
key
bene
pass
estim
supply
investors
measures
short
##ination
further
bas
however
used
rate
emerg
17
study
another
corp
hal
deb
vis
benef
avail
expect
##itical
##els
reco
chall
international
signific
head
##ages
revenue
bar
strong
find
likely
ra
put
##ute
##ty
larg
hold
full
##ash
result
different
earn
small
##ocks
##da
human
##ism
higher
100
lab
apr
products
investment
##ird
great
##arge
##ortun
ent
##ave
businesses
consid
##ted
##ually
##ness
shares
product
execut
development
few
significant
##ather
prim
50
##way
early
city
##ilities
oil
lat
important
build
value
typ
##ked
##ys
##gest
##acy
service
place
customers
cal
online
free
april
##break
statements
infl
##ively
##vers
poss
food
sw
bid
today
##ract
##utions
priv
south
impro
run
sect
price
without
each
##ained
outbreak
##ex
lockdown
best
##ession
gener
ple
past
##just
##erc
##ains
policy
wr
better
prom
mr
table
mem
quest
##ases
admin
##ergy
though
medical
hist
pur
hard
stre
##atur
art
power
##nes
21
##asing
restric
vol
subs
##son
children
mean
available
port
200
compared
opportun
##ality
hop
fil
##iday
##ale
production
##ired
leg
##ned
stocks
chief
##ield
mid
announced
##oci
##uly
come
hand
provide
infect
operating
third
##ified
belie
##ourn
concern
##lished
##ening
##til
##atory
##uf
region
regul
##tom
disease
weeks
##king
li
cred
env
added
associ
adjust
move
##crib
times
energy
prices
lear
deal
##hn
spe
##orn
init
able
exc
tal
24
expl
##par
local
security
employees
##iting
old
plat
##ote
##red
##ody
##str
aust
di
wom
operations
et
##thing
##wh
gre
point
##ived
elect
unc
positive
happ
##ners
costs
treat
increased
enter
forec
prior
whether
met
##ush
##ended
##ll
vir
sour
life
stand
doc
least
##ising
jan
##ator
compet
sk
previous
might
fall
university
22
htt
##per
earnings
really
targ
making
camp
##iron
##eo
##unch
suc
upd
list
cy
using
##pl
##stand
him
lower
within
retail
average
account
stor
york
turn
##ences
view
too
leaders
##ten
environ
biden
case
##ah
staff
rights
##atic
administ
testing
##akes
reduc
##arm
journ
win
hit
corpor
vari
##ri
half
wed
sing
platform
##up
protect
rates
##thers
large
analyst
##lement
design
##lier
##onse
##ocr
following
general
repres
##ged
federal
response
five
##ufact
cut
##ators
manufact
plans
media
seen
john
##att
monday
director
##inated
##omm
american
mor
beh
clear
ident
clin
23
clos
##ton
december
applic
money
july
instit
agre
deliver
mult
##ribut
mater
##ium
##uation
40
challeng
##cc
##aim
##port
vaccines
reach
vide
statement
##ai
stay
please
##uce
##co
depart
##tim
executive
respons
democr
##li
include
##less
vi
som
environment
drug
austral
performance
##go
500
##ike
##side
cn
https
buy
canad
several
individ
complet
six
##ulation
yet
##work
##aw
sug
bi
bre
ww
until
##acks
clim
##pped
guid
america
##au
tues
ll
##aining
seg
afric
certain
lot
events
success
content
hour
restrictions
tuesday
neg
28
trade
others
##cept
##mptom
let
ended
given
become
email
##ature
individual
wednes
##ample
sept
assets
profit
gas
wednesday
officials
##ng
##ense
office
additional
things
##ph
www
friday
project
earlier
##omes
credit
pa
##ats
must
eas
##lex
terms
aug
european
rele
ens
27
bal
partners
thurs
possible
recovery
particular
published
ge
russ
board
close
step
thursday
interv
acqu
canc
called
community
sector
present
proble
arr
women
line
##ames
ah
dev
norm
##ont
##ware
##aph
##apan
dom
north
##br
review
##aily
blo
order
tel
japan
##mar
class
##ference
watch
desp
conn
issues
safety
ceo
##ensive
comb
##ins
mil
hear
family
members
decl
ur
journal
minister
feb
changes
26
##for
target
ed
esp
##ints
latest
having
systems
ste
levels
debt
##ened
summ
nearly
##ury
limited
annual
launch
daily
##ditions
##ogle
sell
event
fig
risks
leading
job
confir
im
surve
broad
##aces
uncertain
##ably
conditions
##inese
white
pract
black
contact
represent
experience
germ
chinese
educ
##ibility
despite
quick
why
##cr
2022
##care
caus
decision
release
symptom
##ances
season
inn
bill
##ilar
##uary
deaths
address
##fic
begin
##cal
committ
administration
require
##ify
##ank
tre
sust
link
##inc
fo
claim
offer
##be
live
2018
reporting
##ift
ap
january
temp
date
masks
fre
private
appear
coming
forecast
common
similar
increasing
taking
##ruct
particip
##oud
department
chec
funds
##bit
september
feel
ahead
understand
resour
29
##ove
diffic
position
approach
##ones
meeting
reop
cop
improve
difficult
brit
reports
currently
led
##20
later
##ittle
coun
needs
jobs
chain
former
adjusted
##ne
little
##ival
discuss
fell
thous
35
wal
ep
##ancing
police
##bc
##ians
char
rul
india
##ape
autom
fore
##ental
##icle
threat
##aging
##ways
##xim
ga
largest
equity
dou
##itor
ide
##aken
growing
mus
pack
##oses
##ems
pred
nation
innov
party
mill
clinical
infection
safe
political
60
central
edit
enc
##uck
special
points
har
healthcare
got
shop
ago
ability
along
##ublic
ever
example
doll
alm
wid
once
mass
sus
break
customer
contract
believe
factors
consumer
mom
febru
##ann
vot
february
##egr
tog
##me
getting
stop
boost
reser
##tain
students
video
lives
solutions
treatment
slow
espec
fail
together
histor
##uel
gold
ill
emergency
##ung
symptoms
orig
ess
areas
young
indic
often
google
respond
bring
wear
proj
flow
index
exist
occ
capac
cover
purch
##acts
cov
track
ir
##ining
senior
americans
rise
infections
comes
especially
##holders
exch
scient
strategy
phys
almost
2027
means
never
late
ful
detail
consider
##ction
doing
##oid
##arily
climate
##aign
challenges
mic
hours
que
wash
##ili
trading
action
##rast
##atter
hot
##itions
tested
asia
visit
##ething
republic
prov
push
cell
campaign
required
respect
benefits
population
fis
something
##rupt
give
sustain
recently
personal
sent
mob
labor
##que
question
##abilities
efforts
organiz
interview
##ecess
##ds
effective
##na
fun
hed
##ols
needed
##ret
center
comment
toward
om
san
continued
##enses
capacity
enough
invol
relations
model
##itter
##action
effic
##ta
shut
august
biggest
refl
recomm
rap
##lus
trial
virt
came
situation
type
left
election
ensure
##wide
##sel
won
standard
soft
##fol
##ength
oct
segment
securities
ach
foreign
webs
hu
taken
source
es
normal
note
space
medic
organization
ca
propert
basis
below
agency
received
australia
##inal
away
tour
##atives
amount
crit
gaap
cur
vent
sars
fiscal
conference
amid
2012
margin
##though
portfol
canada
##aps
##ench
essential
network
36
resources
##ogn
variant
known
although
prevent
colle
held
##ison
africa
spending
closed
##oming
natur
##ugg
numbers
45
##aur
regard
vers
kind
##edi
above
firm
##ounts
chr
soon
outside
hope
book
##akers
prem
exchange
##ently
concerns
##ley
officer
divid
integr
##raph
court
took
estimates
##ises
##enn
banks
trust
started
nas
opportunities
rose
create
expand
rapid
##ades
achie
consumers
##agn
experts
##ume
fri
##ipment
##isions
##ude
provides
commerc
fear
recogn
##epend
schools
authorities
communic
spok
vaccination
cho
##ured
decre
log
micro
##ption
##irc
tests
experi
hol
assess
aud
finance
critical
provided
##loyment
survey
done
##erv
sure
groups
street
##ott
activities
manufacturing
##sw
33
70
##ribution
independ
chair
##aged
education
mess
role
intell
commission
sund
80
cnn
twitter
viol
quality
corporate
implement
phot
##ci
wind
quickly
insur
restaur
32
always
name
##igation
began
course
remains
longer
overall
activity
##ew
quarant
includes
pet
gl
fast
lost
wa
##aper
age
##ology
##ger
##icip
schol
johnson
saying
##ceed
moment
hedge
suggest
##eler
players
transm
initi
opportunity
commercial
miss
arg
##vem
34
equipment
199
necess
##iple
ther
novem
particularly
##idents
##ograph
##udg
washing
75
expenses
range
div
receive
single
unemp
suff
everyone
included
issue
november
##lines
confirmed
distancing
natural
asked
##he
##book
##pping
star
##err
docu
##over
fight
reason
ال
reduce
##itch
hy
susp
trends
building
sunday
bor
cit
unl
deep
highest
circ
amaz
bond
bit
advis
##selves
green
prep
portfolio
##han
##uction
evid
##ural
antib
funding
##aker
website
cloud
##ructure
calif
aim
infrast
rules
cond
protection
acquis
90
ways
area
showed
##ament
inflation
france
##ecting
foot
rob
transport
##ple
modern
self
00
##ke
37
44
##gress
acceler
pharm
constr
38
##ither
express
39
##ald
mc
continu
check
##oint
communities
lond
prime
associated
##roduc
vaccinated
##uters
progress
##ule
thousands
water
fair
saw
octo
russia
##crip
agreement
guidance
brand
poll
##pre
euro
didn
##ony
assist
##izing
london
48
learning
##anced
da
immun
infrastructure
front
final
makes
rather
profession
ai
rising
shows
technologies
vs
host
october
rat
##ij
analysts
investments
official
losses
specific
##dle
##af
compar
drop
mich
mand
west
questions
scholar
avoid
science
##ips
const
governments
##going
bey
veh
##ime
##berg
##ero
influ
sel
history
##encies
fourth
##iety
##ico
##abor
41
prob
delivery
side
##ane
payments
fully
sched
bord
cd
subscrib
##ories
##val
##rote
doesn
expectations
stores
hong
researchers
instead
brands
pressure
phase
disp
cand
loans
rac
vict
dow
roll
##ring
trying
##ams
strugg
land
virtual
tell
##icron
beyond
negative
committee
register
californ
##istics
series
kong
##by
policies
determ
omicron
##ective
wall
adop
store
##izer
industr
unemployment
thing
doct
wrote
decline
##oss
paid
kill
organizations
##oy
contain
##ming
##ios
behind
benefit
conduc
##olid
aid
teams
severe
##cl
mask
43
problem
##ables
previously
mark
site
##ots
##ev
domest
cult
##pm
intellig
caused
scale
california
card
effects
immedi
existing
patient
##aster
software
germany
lack
article
offering
remote
##look
ebit
fav
light
secret
entire
##ributed
den
cause
continues
balance
##inary
##sh
hospitals
##fl
polit
##den
extern
revenues
mot
abs
recover
mis
infected
strength
leader
focused
evidence
optim
55
ps
##cement
monitor
estab
reb
##oks
washington
super
middle
mal
mort
isol
men
industrial
millions
collabor
game
consolid
studies
measure
size
##vert
##sequ
##self
##fully
65
actually
ang
individuals
amazon
encour
ver
describ
road
anticip
surge
42
famil
union
candid
serious
application
loan
facebook
highl
pf
scop
percentage
prosp
projects
domestic
repl
transform
meth
minist
##gn
greater
external
member
##lying
dam
stim
legal
asset
driven
via
##ky
obs
ec
ny
responsible
##ney
##issions
race
popular
night
multiple
request
##yn
##come
clean
families
developed
er
##isation
yield
##wor
pan
##ma
pac
##istic
summer
room
struct
users
fa
approxim
everything
##asts
##ark
facilities
insurance
2017
##aries
##ging
distribution
ul
released
dro
quarantine
kore
reuters
stimul
##icles
##set
leave
outlook
##enced
seven
investor
games
der
stage
allowed
liqu
doses
gm
england
affected
providing
scre
ten
east
estimated
various
living
##ague
property
46
ongoing
drive
update
went
##ob
dollar
mobile
shareholders
##esp
independent
sett
vul
force
convers
base
morning
##thern
sites
##tech
homes
##ires
##app
christ
figure
residents
approximately
isn
cities
round
braz
path
##ler
pick
##daq
vulner
49
seeing
dead
smart
themselves
##ender
discl
charg
##osure
partner
bur
matter
tradition
##ivity
nasdaq
scen
adding
##aud
either
institute
##ored
majority
regulatory
##omp
subst
lib
material
learn
##force
##ification
liquid
diagn
bad
yes
47
claims
sn
##elt
fuel
##ented
trials
story
95
##atures
##kn
##oph
52
sold
##ites
##bon
##ept
satur
##where
demon
electric
##aced
conv
clients
engine
subject
limit
coverage
issued
ms
afp
budg
teach
##ama
##gen
##rel
anti
intelligence
else
british
cam
commit
relationship
ground
51
agree
wave
problems
tempor
tools
partnership
##eline
ebitda
##load
##reh
##yr
block
consult
##ension
##ele
sil
##de
epid
##ida
##idence
##utes
method
##rain
programs
##itary
##ping
airlines
hous
##enge
italy
pfizer
starting
brazil
purp
worth
terr
uncertainty
gain
answ
options
sense
rich
shift
insights
##xy
ast
##iring
sens
##ferred
gains
##30
whole
expert
dose
chann
2016
predict
##ried
expense
industries
mex
##itted
firms
##of
saturday
eval
worldwide
##augh
##zen
transmission
##ique
##agr
##amed
58
throughout
##actions
##cul
updated
separ
challenge
profess
prec
training
try
tex
idea
strategic
extre
meaning
compreh
vote
accept
passeng
##eal
orders
princ
running
delay
54
core
##ties
gross
reduced
centers
mac
beginning
##atively
stimulus
introduc
##ides
works
civ
relief
##rought
400
56
behav
heav
noted
laws
moving
created
items
57
##aming
lt
##erce
plant
ii
document
##ply
##la
field
huge
parts
highly
##hood
##ux
##lies
##umb
died
##ilt
secretary
arch
vo
facility
forced
##uted
notes
seem
flo
payment
mit
pain
##hib
##ado
cross
marketing
tur
##prise
crow
##ban
overs
disrupt
sports
initial
##amm
exclud
expects
jump
##while
significantly
vice
body
doub
pacific
eth
citiz
demonstr
details
##empt
text
##vant
##ills
regular
comprehensive
##esh
53
complete
##igr
decisions
innovation
##iet
85
ey
association
subsid
effort
##oo
regarding
democratic
extra
helped
kid
participants
dest
regional
59
acquisition
physical
mer
achieve
mach
##ese
directly
approved
##cil
planning
developing
geor
##equ
parents
environmental
whose
necessary
apple
household
minim
investig
##erson
probably
nav
thought
stress
surv
##isl
61
##roc
touch
speed
calls
ut
professor
aw
historic
editing
flu
corporation
protest
scenar
meanwhile
##odies
restaurants
scientists
award
consolidated
##ino
treas
sick
99
considered
fda
##rew
##bn
##eration
recommend
##elines
rad
phone
connect
function
##acing
designed
##imes
donald
opin
paper
emerging
primary
potentially
offers
solution
brief
chairman
sale
helping
society
sources
##ein
##uty
critic
##ball
leav
congress
raised
strategies
texas
##ancy
categ
recorded
worst
01
##iff
che
launched
##yl
novel
##reci
##eter
arm
manager
cyc
##duce
attack
poor
contr
##iment
squ
perm
##hs
competitive
rene
dil
consist
uns
became
military
reli
##eases
window
300
reve
rout
spot
border
ran
legisl
brought
##ided
hund
privacy
fire
##put
nature
##gre
sustainable
ready
internet
construction
figures
civil
origin
hundred
alle
flor
warned
nations
easy
##ugh
##oles
64
beij
##mark
applications
owners
unf
anim
hur
commerce
diseases
immune
actual
##erse
requirements
##used
towards
schedul
budget
hands
beijing
king
division
66
##olution
cdc
zero
actions
directors
facing
approval
je
accounts
org
trend
sat
dividend
web
blood
eight
goal
joe
##body
mind
french
##asons
largely
crude
goods
worked
altern
david
council
##lin
cancer
exerc
tit
wide
korea
democrats
primarily
##erous
devices
leadership
67
##mb
mental
gi
county
dan
##ortion
happen
carbon
##ledge
league
aren
ele
infectious
match
editor
##iter
##to
grad
obl
##ought
##rael
reopen
wel
heart
generation
##back
lic
mix
materials
traditional
bloom
bull
##ask
newslet
reserve
reopening
therap
##ara
62
##ael
##utical
britain
changed
plus
maintain
israel
steps
nine
volume
73
itself
active
77
identified
##enz
identify
advice
##bed
delta
##inks
linked
sectors
##ges
invent
club
##cing
pict
planned
nov
weak
princip
univers
defin
enh
##soft
renew
##kets
qual
currency
##ha
##fect
insp
comput
ltd
##yal
sun
grant
propos
##acter
flex
announcement
63
68
complex
##ford
practices
##wise
positions
##unt
advant
74
attract
mexico
##aceutical
##makers
scr
##uk
spend
##apt
##ruption
ministry
traff
someone
##cast
lockdowns
condition
respir
citizens
71
##icians
college
surf
shown
senate
older
reached
unpre
anything
republican
distric
##yright
manufactur
pric
places
cells
decrease
##cape
##aled
mut
favor
##lusive
shot
models
borrow
talk
followed
manage
copyright
microsoft
vulnerable
temper
thanks
fix
airport
purchase
enj
prepared
driving
click
##ished
holdings
il
refer
join
delivered
taxes
72
cele
banking
matt
declined
lines
involved
##ighb
comments
##estern
transition
neighb
trillion
pal
decades
##cription
built
founder
mission
african
estimate
takes
carry
forecasts
seems
described
buying
changing
wearing
regions
competition
cnbc
gmt
unit
alone
true
69
package
advanced
divers
cat
##imin
selling
friends
2015
increasingly
proceed
76
liabilities
##ider
##oti
les
##encing
##ham
unpreced
unprecedented
advert
78
stake
continuing
option
love
joint
##use
##oring
standards
84
##ashion
upon
wanted
peak
emissions
calcul
##ological
providers
attention
opening
pd
sex
quite
prevention
##ana
bloomberg
##etic
##umption
features
justice
##apore
lands
double
reduction
##lied
compens
die
promot
hon
institutions
schem
##ba
generally
##iver
ship
financing
evalu
user
expans
feed
platforms
91
##do
maint
housing
rough
##iants
owned
##ze
florida
fashion
singapore
toll
believes
##tered
friend
exposure
liquidity
adults
illness
09
asp
##bi
diversity
86
thank
lay
increases
##works
wealth
resil
park
successful
mag
uncertainties
foundation
spent
filed
shared
fit
nom
forces
ask
weekend
anyone
centre
employee
keeping
seat
fat
##her
##bert
russian
pubmed
confidence
pow
coal
estate
sav
analyt
canadian
attend
inj
supplies
status
medicine
violence
88
seek
holding
secure
##ife
##off
version
twe
chance
pull
attacks
##lymp
giving
dropped
pip
photos
05
scopus
04
dang
dollars
##ropri
treasury
##ronic
##ream
parties
81
##ores
guard
##elling
olymp
impacted
movement
cancel
89
##key
australian
letter
search
##inations
##emb
protests
hom
hotel
hundreds
##zer
signs
nothing
600
town
guidelines
prepar
08
understanding
stories
respectively
87
closing
ukrain
champ
conserv
apart
arab
##umes
##gi
79
batt
02
##anch
reform
##ags
page
substant
zo
reasons
compon
investing
subscribe
##lear
doctors
moderna
drivers
committed
asian
michael
quarterly
decade
creating
##yc
ultim
section
06
message
immediately
volat
las
bst
##uit
nurs
82
smaller
typically
globally
larger
##place
grand
retailers
son
##fort
##illing
practice
premium
pharmaceutical
relevant
##room
massive
98
##ters
pen
inside
barrel
depend
thinking
consequ
agreed
economies
gov
##ighted
nyse
purs
##dp
afford
monitoring
geograph
nar
ones
##ously
decided
holiday
##lim
therefore
03
##tr
proposed
rapidly
##orp
creat
##eless
spain
##uff
appoint
cents
raise
shif
accur
mention
tom
pi
##arant
moved
##ounds
bot
weekly
bed
offered
lang
counter
collect
cook
healthy
farm
vehicles
felt
##ensus
leaving
employment
futures
western
culture
ok
ho
##ifying
negoti
##ls
##igate
##urch
##omb
##iam
original
##elled
respiratory
fees
professional
traffic
##edic
solid
94
recon
calling
combination
accounting
showing
##ibly
regulations
expansion
except
##rative
units
operational
07
popul
simply
couple
##yle
##50
pod
spike
brow
basic
impacts
##ya
produce
caption
sugg
looks
##idge
kids
chem
words
managing
celebr
governor
reality
83
suggests
ip
chains
rent
obv
##erate
cuts
97
finally
##log
##iveness
angel
##know
flights
wild
##iction
transaction
##eed
##ao
##iation
difference
##osition
franc
goals
experienced
affect
fort
frequ
##ros
slight
workforce
toky
ratio
96
turned
##play
obvious
provider
dur
##ett
combined
outc
returns
##ker
maybe
##raft
acad
##onom
processes
tokyo
scheduled
##ece
##ref
shopping
relatively
hi
jud
faster
ic
pace
##itten
ventil
fresh
##haps
cru
persp
dyn
guarant
seeking
german
tv
collaboration
otherwise
compr
constit
extended
appropri
becoming
voters
perhaps
recession
phil
returned
antibody
eur
fears
indian
rein
cyber
roughly
##ipped
##arters
voting
advantage
requires
allows
worse
hor
repe
writing
breath
equival
zacks
channel
cry
usually
circum
ton
jones
scientific
music
tight
fish
92
employers
student
mail
epidemic
hub
cert
##astic
fal
acknow
wants
haven
compli
exact
talks
minutes
##amples
##ych
frame
offset
##standing
drugs
##tin
corre
covered
bir
managers
developments
appears
ber
charges
serve
hyp
meant
mount
regist
##iled
profile
##fo
saud
wu
transportation
exam
subm
##der
extrem
goes
postp
weather
##ception
rule
##urred
cu
improved
viral
initiatives
tough
bol
temporary
fans
compensation
##ows
##word
bench
send
remained
tourism
##ris
paris
remember
exercise
managed
attempt
mov
draw
types
spring
considering
winter
obser
internal
posted
##ipping
originally
somet
monet
representing
conducted
speak
vehicle
##perform
analytics
uses
beat
republicans
gone
save
##19
##izes
publish
compl
vend
iran
93
quant
pdf
newsletter
prompt
protoc
outcomes
reflect
198
rally
tens
clo
##hi
ire
urg
download
capabilities
rebound
antibodies
paul
presented
spreading
charge
##liers
fewer
coop
##10
freed
supporting
unique
picture
dynam
faced
damage
allowing
priority
contained
purpose
##hol
enable
technical
##ster
##illed
object
box
latin
##dom
van
circumst
subsidi
warn
operation
certainly
ath
opinion
sud
enterprise
film
color
sustainability
rid
landscape
establish
isolation
evol
scenario
bonds
wasn
alloc
airline
flight
##uations
supported
##amb
minor
outl
island
simple
alex
suppliers
##cross
versus
saudi
du
sand
challenging
thousand
migr
completed
contrib
communications
##icient
district
hide
contracts
enab
killed
helps
code
cast
##osis
export
signed
thom
neut
passengers
wait
ukraine
retire
targets
langu
putting
depos
registered
ireland
spokes
tra
pricing
findings
##ada
mostly
cruc
##agues
##igration
##ops
##crossref
woman
enfor
##wire
##emi
##ding
transactions
##ipl
professionals
##house
enjoy
globe
mad
rs
disapp
established
concerned
maxim
underlying
deploy
manufacturers
gave
knowledge
gained
##nel
mel
gives
programme
##itors
anticipated
complic
gather
##urg
communication
thr
effici
##otech
outbreaks
career
reducing
sort
giant
presidential
officers
ball
candidates
##ef
hopes
failure
ven
proced
struggling
exposed
collection
##osing
finding
updates
passed
strict
views
stra
bringing
commitment
mur
##tty
zoom
skills
amounts
##ago
##umm
widely
assistance
circumstances
depr
##oes
happened
##ona
improvement
conte
expressed
perman
gdp
operate
offices
sometimes
##iles
fle
pic
amb
150
pretty
economists
written
##bl
locations
trig
assessment
gar
##ault
sharing
adapt
domin
authors
comfort
##mas
japanese
compliance
interests
password
##eria
##itation
choice
protective
agencies
parli
ib
##lands
##era
##lor
tool
effectively
character
800
##eas
##ipp
northern
output
restaurant
psych
transformation
protein
##ground
eg
facts
mortg
lux
decreased
mol
os
issu
variants
unless
##oned
sport
ts
structure
attribut
networks
usd
##eca
2014
contributed
parliament
operator
accessed
elig
appeared
candidate
mat
logistics
economist
##echan
speaking
confirm
##itable
efficient
rely
amort
legislation
alternative
wrong
boe
##espread
defined
widespread
##acion
scheme
eye
setting
disin
advance
capt
##net
sequ
##anta
impair
##hen
util
synd
clearly
initiative
freedom
wuhan
##aft
##apeut
playing
answer
james
produced
talking
burn
wire
blue
##field
royal
mechan
pil
transpar
##ecur
gets
##lusion
perspective
investigation
entertain
temperature
breakdown
immunity
grew
diluted
##coming
tes
indo
segments
##cy
fraud
doctor
##arian
failed
write
##ari
immediate
resident
affecting
therapy
##inting
##gu
##roll
responses
resulting
storage
##aid
##oon
player
consumption
monthly
importance
neutral
organis
ox
factor
##aren
##istan
represents
andrew
closely
##ica
##orter
##ecurity
southern
hall
presentation
appropriate
consensus
paying
inventory
confident
improving
##enty
##wan
slightly
q1
crucial
gir
tweet
processing
##airs
authority
pattern
cab
executives
efficacy
bear
astra
etf
coast
appar
commod
groc
##erly
gra
##uci
biotech
deals
clar
sheet
topics
dram
nhs
cold
played
refin
happening
##band
bottom
projected
scott
ital
unable
provision
broader
responsibility
context
##21
dub
volumes
coord
instance
##riers
behavior
advoc
hyd
sample
labour
savings
football
ultimately
monetary
emb
lease
properties
##che
mainly
robust
rating
notice
ideas
gap
##otive
defense
materially
downt
absol
detailed
##rs
resist
constant
institution
##ports
prison
apps
disruption
values
heavy
##uses
speech
discover
cars
deg
jun
conversation
meetings
willing
falling
opened
harm
atl
##ested
highlights
disney
therapeut
usa
##umptions
ren
##zeneca
syn
##eries
initially
ease
suggested
backed
chap
bea
shutdown
welcome
storm
##ped
assumptions
fever
mother
exclusive
innovative
##ga
entertainment
recommendations
anx
##board
astrazeneca
conflic
covers
statistics
rand
grade
session
kept
subsequ
lose
occup
automotive
client
raising
agric
profits
entre
instru
fif
ramp
parent
extremely
apply
warning
install
span
##erve
##atically
align
tor
##agement
##ifically
sea
determine
adoption
stated
returning
screen
subscription
caution
dedic
sci
politics
fem
##view
##igen
insight
outstanding
remaining
wood
concent
machine
colleagues
##resp
excluding
##ikes
imposed
##agram
delivering
sle
surpr
fu
completely
ign
waste
athlet
reading
contribut
era
periods
##ivir
image
trip
experiences
##ania
choose
earth
merg
outdo
##holder
device
asking
digit
##arks
multi
acquired
connection
fixed
##ode
lit
1998
relative
plc
historical
receiving
##greg
auto
volatility
worry
##rics
discussion
rare
##ota
blog
plants
pipeline
feeling
##reciation
regulation
degree
fauci
mayor
flows
introduced
##uth
swe
##ille
##ki
pros
peace
adverse
lou
remo
variety
matters
vital
tend
venture
victim
##iers
vision
argu
pushed
##osite
tracking
para
convention
nationwide
##ata
diagnost
##ria
euros
hotels
spect
task
##has
ending
christmas
urged
##aught
shortages
tack
efficiency
##ien
instagram
rh
moves
interim
attributable
##ca
urban
wond
momentum
specifically
md
kingdom
##ken
ben
shel
sharp
georg
straight
engineering
false
teachers
##isco
mortality
nuc
revealed
tracing
connected
agricult
##oration
households
stronger
location
prospects
expend
trou
mining
bab
influence
##kin
vac
linking
thus
zeal
crew
publicly
crowd
##avio
automation
##ador
extent
causes
mortgage
tesla
##craft
square
stead
##uge
placed
separate
##pro
yields
2008
##16
incent
records
angeles
predic
advertising
catch
waiting
##oth
##unte
distance
##ulated
gath
delays
battle
strain
mrna
bigger
##ita
##pe
distributed
targeted
expendit
lowest
##argo
##more
fy
inequ
mentioned
volunte
accomp
##ias
tried
himself
tai
technavio
listed
adds
theat
disruptions
withd
sanc
accelerate
chat
exceed
bion
na
booster
exhib
##eck
eventually
luxury
easily
generated
sho
##mo
named
resilience
vast
sentiment
##ez
implemented
batter
proc
##ading
zealand
##ola
##abil
feature
none
reserved
george
accordance
fintech
explore
images
aggress
q2
reporters
shr
presence
producers
documents
category
yourself
imag
unlik
weigh
purchases
shock
transl
language
powerful
##har
comparable
aviation
shots
gender
unlikely
conclud
aer
sees
cutting
agreements
arrang
premier
explained
jeff
oblig
sudden
briefing
expanded
century
ry
##ional
##aves
od
##time
pled
acquisitions
cagr
##iance
journey
recommended
eligible
aircraft
wip
emot
ken
##isf
ly
easier
entry
scope
doubt
worried
winning
##bre
handle
availability
spons
repeated
az
##active
##aded
interviews
cybers
sup
197
eastern
consequences
opposition
bay
schedule
delayed
decide
heard
worker
oh
chic
5g
##verty
aged
additionally
consistent
lawmakers
computer
joined
##kins
happy
spir
timing
supplement
incorp
##itory
penn
owner
poverty
pel
##iliar
pm
dealing
vill
##ici
##itis
involve
outperform
cruise
edge
cough
victor
##oke
##ester
zd
##wards
usual
useful
shortage
ce
biontech
protesters
criticism
##box
conservative
flat
priorit
conduct
##ilit
emerged
spaces
##formation
respondents
minimum
advisory
obviously
informed
engagement
reconc
looked
proposal
possibility
exports
medium
minute
wit
extend
smith
substantial
jumped
debate
mun
closures
robert
suspended
mos
chemical
##abet
elsewhere
remind
perfect
declared
##ystem
pushing
##whel
train
cycle
##itely
##mon
elections
##alities
spl
amortization
names
registration
effectiveness
expertise
##ched
quarters
##night
tick
served
maintaining
correct
##ox
oxy
sound
telev
benchmark
younger
##outs
visitors
taiwan
##vin
fulf
surg
leverage
zdnet
retirement
por
2025
transfer
chapter
##ishing
forg
opec
whom
##0s
applied
resol
##enders
faces
province
##ura
principal
losing
250
emphas
2024
virgin
##mer
racial
select
adjustments
switch
##aling
attach
700
##point
##enda
intended
prepare
packaging
length
dog
controlled
excess
##omet
graph
bullish
exception
##raw
##uan
##entions
aims
boeing
##ube
hasn
door
treatments
exactly
behavi
au
##iqu
##ny
meat
rank
coach
successfully
empower
expanding
accelerated
##eli
determined
voice
overwhel
bars
sam
alongside
ups
spoke
rang
sufficient
reset
spokesp
interested
coup
##za
indicated
fest
passenger
handling
cybersecurity
##ogen
learned
beach
dut
lung
tic
##iplom
economics
appeal
##stream
##road
administer
listen
generate
##well
diplom
dangerous
merc
frank
purposes
anth
implic
personnel
incorpor
amp
hydro
##gun
prospect
##omo
indeed
entered
kim
chicago
incred
panel
dividends
moderate
applicable
samples
upgr
coh
projections
insider
fighting
archit
italian
integrated
shap
aware
carol
silver
rail
##phone
walk
framework
##rier
turning
##nic
animal
##12
##iling
familiar
peter
settings
undert
##health
##usion
rig
birth
champions
bio
crim
breach
father
witness
aimed
feet
telec
##ubs
stable
articles
interesting
truly
ordered
carried
makers
talent
##iny
spokesperson
surround
threats
##ront
satisf
recru
outcome
intensive
safely
196
swed
resume
follows
relationships
mild
acute
workplace
mandate
margins
protocols
##ferences
treated
contacts
dedicated
##east
##ander
mike
procedures
oxygen
2013
artific
recovered
##ae
operators
supre
conven
photo
refuge
permanent
kr
governance
fine
##ensed
##itude
buyers
encourage
##igan
crash
petro
file
jul
discussed
##xit
audience
##emy
resulted
robot
spokesman
devast
##aint
becomes
driver
explain
resource
##ho
veter
classes
##des
alco
discount
##urring
sky
georgia
reconcili
eld
restruct
dism
administrative
maker
remot
##conn
shipping
motor
ow
nut
hung
##exp
gatherings
democracy
##uable
movie
ratings
rural
streets
wouldn
facilit
arabia
##ani
brown
##ti
ter
tab
##aj
weight
flexibility
llc
##wood
viruses
ml
hus
surface
##com
differences
lawy
borders
airports
accused
checks
ensuring
##ards
jer
impairment
unv
oce
##ato
rock
chip
##angible
##orney
miles
temporarily
120
humans
implementation
##here
reaching
si
##icef
bankrupt
louis
citing
##ustr
depreciation
##reg
##lough
direction
bul
attorney
closer
overseas
streaming
couldn
born
unicef
heavily
ordinary
acknowled
##izations
remotely
bure
church
affairs
furlough
indones
##google
epidemi
pregn
flood
populations
##leg
##anda
judge
enforcement
hearing
provisions
productivity
happens
methods
prove
##osystem
crypt
##cs
##oma
reference
height
imposs
integration
cer
ware
eb
##ivals
brexit
resc
display
poly
##inem
container
alcohol
stopped
##iot
artificial
partially
##oman
tro
vaccinations
spr
achieved
lng
wage
stream
hiring
##14
obt
##market
mist
ventures
dial
assemb
valid
sought
##inet
entrepr
invested
olympics
##bing
criminal
recognition
dispos
##ala
crime
##ghan
factory
kick
brain
remarks
lee
elev
nursing
observ
bon
station
fifth
corresp
boris
calculated
extreme
creative
lending
##wr
diverse
adequ
english
guide
traded
combat
wake
deferred
wife
harv
components
##olf
##brid
##pper
rmb
relating
max
correspond
recognized
wors
##utely
reserves
autonom
hill
iv
##inate
proud
##ologist
obligation
agenda
##itarian
channels
valuation
controls
oxford
##tm
highs
##quo
summit
appreci
##wind
shareholder
laboratory
##ka
persist
claimed
martin
##rim
discussions
expensive
chris
knew
filings
##ups
transparency
impossible
tar
grocery
immigration
##ucks
replace
numerous
fab
ecosystem
surprise
##zz
surveill
daniel
evening
impress
throw
##print
adopted
alliance
gard
downturn
##west
fellow
##mes
awards
coff
word
judg
##known
tail
richard
entreprene
newsp
twice
founded
##nam
shan
##aints
inflamm
portion
aggreg
tas
mitigate
stan
##ersey
##umn
electronic
ride
embr
highlight
trail
aftern
missing
##tor
seats
prelim
easing
encouraging
liv
##ston
covering
vendors
esg
upcoming
sciences
suffered
##ulate
animals
##bots
unknown
pointed
surveillance
##oted
sin
leads
summary
granted
proportion
foods
mainten
organisations
reasonable
##sc
##uts
random
predicted
lag
enterpr
watching
nuclear
2030
afternoon
wider
disaster
instr
bought
##the
jose
jon
organisation
solar
##aring
nig
wish
##ws
equivalent
videos
mine
##ih
whate
morgan
preliminary
whatever
##uro
##inent
daugh
ros
ingr
vary
located
restructuring
rub
##enza
steel
cycling
wat
ont
optimistic
holds
jersey
anxiety
##ror
belief
##elihood
experiencing
minority
concentr
subsequent
hybrid
enterprises
runs
integrity
everybody
planet
francisco
pursu
buildings
##ommod
skift
lifted
liter
##asc
sleep
maintenance
residential
##18
rush
unfortun
mir
##ours
thomas
sitting
believed
molec
accommod
harder
yen
dry
regulators
urgent
ice
datab
selected
procure
##rid
emer
warr
##ena
luc
##ano
2009
contrast
sad
##pass
causing
turkey
##13
component
fallen
##pa
fly
genetic
bell
editorial
comparison
2023
##ician
una
scot
##pers
canceled
##apse
cfo
relig
##ilipp
##ст
sanctions
academic
##kel
lever
necessarily
entirely
engage
conflict
##22
background
partnerships
mineral
##essions
hang
vp
##gs
detection
bp
gun
alleged
iii
##imited
tele
powell
struggle
territory
preca
seaf
standing
##va
freight
shops
desper
breaking
pap
contro
starts
carrying
etc
unlimited
occurred
victory
verified
obligations
##wa
argent
female
television
intr
ham
##ville
supreme
definitely
fill
businesswire
print
merger
promote
uber
proxy
ko
contribute
underst
categories
postponed
##acer
cited
##loyd
entering
protecting
protected
commodity
2011
veg
organic
vess
xi
fib
obama
remove
retailer
##audited
identity
william
ram
patterns
magn
consideration
shall
sexual
unaudited
score
relax
##organ
proceeds
deputy
##areness
##bank
observed
bub
newly
representative
##aro
awareness
litigation
gal
##ulf
sem
fox
suffering
serving
##rick
electricity
whe
analyz
http
grown
admitted
react
excell
absolutely
##15
merch
alt
sanit
heat
##mart
##17
gy
scenarios
filing
rej
podcast
trigg
universities
architect
cooperation
##roph
screening
cuomo
headqu
ethnic
floor
magaz
item
##ghai
cultural
wales
travelers
extraord
joining
requiring
dark
encouraged
maximum
pour
forms
q4
staying
equal
occur
answers
tu
limits
jew
stuff
##asion
##sey
brings
explains
killing
##rison
hiv
bike
##vi
zone
depending
overview
unlike
piece
similarly
abuse
sar
##ils
posting
##lam
exploration
##cribe
diss
authorization
reflects
haw
carolina
recip
##acement
indoor
concept
finish
style
##tok
tun
composite
##itz
targeting
requests
##uls
universal
bang
depth
shanghai
radio
intens
dynamics
feels
raw
kh
plastic
unexp
survive
reliance
mandatory
promising
gear
##umed
visits
affili
plun
focusing
seriously
ministers
husband
roles
2010
piv
normally
opt
pool
kil
##uster
viet
yout
##ocket
deadly
burden
##ateral
anticipate
drink
ash
preparing
##information
cup
victims
stem
pun
elimin
withdraw
flexible
jur
##erts
prosecut
subsidiaries
begun
contains
reflecting
##oul
##jan
acting
##ال
guardian
demands
contribution
usage
tan
proven
hospitality
publication
detect
bott
license
##antic
tensions
label
##ados
performed
valuable
##26
traders
telling
jim
onto
##athan
ba
lanc
producing
lu
##gor
philipp
indonesia
abb
cancell
##fall
reliable
##icial
dj
michigan
promise
reconciliation
gaming
farmers
controvers
resolution
mixed
asy
stands
releases
##uate
forth
surged
##hr
participate
mandates
hurt
ifrs
harris
fee
stick
##igned
defic
profitability
marked
meaningful
##ini
books
##shore
##stein
##itative
##oting
disclosure
stakeholders
strongly
influenza
requested
narrow
offerings
rival
ocean
bow
ends
##worth
##ek
racism
##ayer
cann
##ula
developers
##flix
neighbor
ruling
##vent
evaluate
closure
broadcast
ariz
shape
performing
implications
secondary
billions
wis
##zens
photograph
##ен
olympic
collected
epis
mcc
unexpected
youth
suite
favour
doors
eat
adviser
ol
zh
barrels
tap
introduction
stret
distrib
upt
##ario
ranked
arrived
surfaces
prol
hoping
saving
##osh
excited
wages
politicians
announces
eps
chronic
goldman
outdoor
fro
sending
netflix
highlighted
liability
guarantee
restart
approaches
rental
extensive
supporters
escal
therapeutics
declines
opinions
institutional
spreads
hk
reaction
accurate
ourselves
restricted
agents
gam
truck
missed
##onia
youtube
duration
vert
bills
mont
proof
revised
moreover
electron
negotiations
frag
##hips
outlined
induc
pin
2026
gues
technological
##accinated
title
girls
abroad
##edia
therm
navigate
supports
emerge
reass
blow
possibly
touching
buff
renewable
difficulty
song
dozens
sensitive
wer
coalition
ryan
associate
slowly
##igue
##adium
kar
regularly
congr
##mptomatic
virtually
sharply
collapse
misinformation
rooms
constitution
cool
receiv
putin
illeg
row
competitors
lift
tier
bail
amend
drag
operates
reviewed
procurement
revers
priorities
posit
##itting
rain
cleaning
recall
historically
factories
jac
affordable
motiv
afghan
fold
##ucky
master
unvaccinated
enhance
ta
##irect
hospitalized
##isan
regardless
mu
##iana
assistant
accessible
guests
##lots
agriculture
kel
creation
athletes
detected
disord
ford
##gb
##ette
ambit
votes
producer
rollout
900
obtain
##fr
fleet
sor
unclear
bern
##gl
nurses
disco
cycl
deadline
140
seemed
##po
barb
magazine
##urance
kits
yester
arizona
subscriber
plenty
gene
newspaper
pharma
aspects
##quir
comfortable
grants
##mental
##men
110
musc
##real
##ais
removed
semic
funded
strengthen
severity
extension
practical
messages
insist
imports
spanish
wil
##onduc
hou
distribut
band
computing
caut
mobility
asymptomatic
unsubs
hopkins
fi
ingred
##markets
consulting
hack
coffee
draft
participation
##bal
advised
semiconduc
breathing
nice
2000
marc
outs
suggesting
wells
muse
slump
##но
reim
unsubscribe
##uctions
jet
terror
racing
yesterday
ira
##ingly
cha
engaged
gall
laid
##aria
swiss
victoria
##amental
anthony
cautious
announce
daughter
tay
##icate
aggressive
ipo
experim
skin
sets
bright
##onto
cancelled
contag
hygi
superv
depends
elected
193
penal
nick
trib
principles
centres
enhanced
unfortunately
myself
##ecution
##ione
comprom
presents
##ifications
steady
tackle
reproduc
medicines
beauty
heading
anywhere
climbed
extraordinary
pitch
lived
##itzer
##iding
instruments
pul
##ashed
shoppers
bridge
commitments
##prof
deliveries
spar
q3
migrants
fundamental
nutr
discovery
##rome
##ية
inclusion
army
##iy
knows
##rey
##40
aver
seafood
allies
cards
deriv
employed
walmart
charged
loved
mutations
neither
bost
startup
audio
##eg
resilient
incident
attractive
##eron
commentary
##iced
ticker
responded
doi
##don
metrics
finished
calend
deposits
preferred
rog
stood
halt
append
##ius
bankruptcy
##ora
branch
wonder
reflected
surrounding
authorized
cc
expenditures
##istical
enabling
noting
parks
secured
measured
reviews
recognize
preval
manner
##awn
collective
##andmarkets
##iang
empty
evolving
##isa
subsidiary
repeatedly
stages
pair
unve
mary
representatives
lessons
ci
##ua
stability
##onym
analyses
campaigns
##eph
pcr
purchasing
htm
##pi
santa
caught
aside
##uries
stockholders
campus
adult
##ella
prompted
addressing
lenders
owns
alph
arrested
lin
prote
reportedly
metal
macro
hair
tow
floyd
boom
geographic
tourn
researchandmarkets
pension
boun
crack
overnight
requirement
equivalents
cohort
ster
improvements
earned
bureau
الا
revolution
nationalities
conversations
museum
repay
##using
cabinet
swift
discre
unders
##light
enabled
toronto
duty
##ded
plane
##oster
eag
drilling
reopened
liberal
volunteers
rescue
expecting
segmentation
depression
diabet
scotland
preventing
lad
webc
administered
cloth
bodies
greatest
glass
load
default
eyes
elderly
inher
supposed
##rum
peers
##cript
powered
##cf
##icks
hygiene
audit
nether
criteria
tast
##cons
##inger
imper
ak
conferences
holders
brent
hr
carriers
superm
alert
copper
frequently
realized
tweeted
monkey
##bai
bag
130
##emed
##jects
deter
azer
##iest
optimism
netherlands
columb
split
baby
appendix
jobless
democrat
festival
ech
##eces
unus
ownership
machines
rolling
lancet
calendar
banned
vietnam
mall
une
##roup
diagnosis
sessions
exacer
boston
legacy
stabil
##criptions
mainland
obtained
independence
sweden
weap
hers
diabetes
worries
demonstrated
exacerb
inhib
posts
bind
pu
partly
weighted
rall
dozen
winner
##iques
risen
map
algor
consp
powers
stadium
lots
##oning
appreciate
edition
##tail
furthermore
irish
azerbai
timely
hospitalizations
contracted
##uild
syndrome
jail
objectives
memor
petrole
sach
positioned
##awa
##star
malays
mt
virginia
ju
gathering
oun
##11
readers
degre
packages
ky
syd
##hire
argued
cargo
##inating
shelter
educational
disclaim
teen
strategist
algorith
##roy
eric
element
johns
explo
##erning
curve
cheap
dream
bitco
ventilators
nur
clubs
denied
automated
teleph
dav
fairly
friendly
autonomous
ot
societ
surprising
##zy
truth
riders
##ea
sides
hun
##ales
degrees
conver
completion
##alf
gh
commissioner
barr
pas
physicians
arrival
pleased
##ei
yah
pak
associates
acknowledge
plays
accounted
##elle
beds
sydney
flag
manch
tells
##what
##eted
chart
##ailand
accepted
evolution
cs
evaluation
struck
promised
##rian
math
god
scar
nonprof
humanitarian
nat
species
signal
hen
din
activists
ppe
drinks
involving
##idays
guess
##osm
##atric
milest
sir
strike
solely
##iams
watched
korean
sac
##ando
##95
slide
##ifies
tourists
##ko
capture
religious
neighborhood
diagnostic
nic
enables
actively
intention
##ecutive
journalists
permission
volunt
succeed
concerning
thailand
ax
cham
flying
islam
elements
database
pharmaceuticals
imagine
structural
struggled
bitcoin
##hl
cb
deeply
agent
alleg
ibm
##isd
alarm
startups
dependent
isolate
puts
##ooth
##ylv
ads
101
upside
##aba
##fa
adopt
finds
notably
##offs
argentina
##illy
median
marks
peer
convert
coc
deployed
represented
discovered
##ingent
nik
waves
declining
tonnes
penns
trouble
supplier
polls
##ibilities
qualified
writes
dismiss
html
##izon
route
symb
thinks
pennsylv
river
refused
essentially
induced
jp
gig
dim
belg
##woman
##attle
intervention
dramatic
reput
implementing
senator
nan
detention
weakness
##itzerland
crowds
jab
administr
##bridge
dramatically
cannab
spirit
heads
consecutive
iron
hab
exists
gop
pounds
carrier
bound
switzerland
antivir
##bor
williams
pump
barriers
entities
compete
##23
steve
##gg
shield
contam
rod
southeast
indicate
sustained
pennsylvania
fastest
basically
##pat
##ictions
##isons
hes
cerem
surpass
forum
##ogue
onset
trips
ray
surveys
iraq
##antly
deficit
weren
ble
tank
capit
tariff
underm
shifts
cub
jurisd
inbox
aggregate
lie
assembly
##link
champion
revol
fan
pressures
##tra
emotional
##ares
drives
##acle
discrim
dynamic
##25
194
borrowing
##pin
##eland
stuck
slowdown
##iate
surveyed
intellect
reductions
concluded
##imate
frontline
cath
##cel
aqu
##aked
battery
dies
pollution
theory
wholes
crises
minds
##bb
arrangements
rans
trusted
devastating
yahoo
formal
steep
prefer
survival
##front
adap
curb
websites
webcast
doubled
bbc
absence
valued
tally
inclusive
advisors
interp
##ан
##orrow
brian
repurch
##sen
##ات
governors
pence
aband
##chain
windows
marri
critics
recyc
##essed
taylor
gradually
##jo
voted
employer
memory
fol
adequate
rom
currencies
tum
##neum
modest
robots
behalf
inequality
ships
petroleum
##aire
bes
municip
muslim
##burg
##anes
substantially
##inct
contributions
realize
immigr
##rie
##roportion
##maker
foss
franch
intangible
pivot
##ican
##uming
suffer
defend
203
telehealth
advers
plas
listing
falls
israeli
tomorrow
behaviour
limitations
hardest
##lie
disclosed
valley
basket
marine
prominent
boss
inev
##emia
supermar
entrepreneurs
pneum
gb
hitting
##head
##oked
##ighter
##cer
##watch
##olic
suit
180
sachs
##ов
cv
explos
settlement
stephen
disproportion
therapies
offshore
enorm
compound
125
signing
races
##ante
rna
##tive
houston
venues
##born
acknowledged
##bid
##70
unch
appointed
##iva
£1
dar
labs
##eld
proteins
purchased
loyal
ransom
##fs
conspir
mosc
maintained
retain
annually
bubble
deemed
nich
cours
indicators
acquire
##outh
severely
hs
##backs
epic
flags
controlling
launches
delhi
nc
format
illegal
resistance
##rary
pra
solve
##dr
dispar
journalism
routine
accum
classroom
kl
##fe
في
sid
prince
##ira
broke
proved
complications
discrimination
##through
broadly
creates
fundament
cannabis
fluct
tied
##73
links
deployment
##unk
shortly
meals
##car
##osen
shifting
interventions
dining
intellectual
equities
brut
##ulative
continent
pakistan
input
ohio
tik
holidays
electronics
##gar
ped
biom
vendor
##iami
chanc
respective
hurric
##owed
accelerating
dates
quiet
awa
situations
##opl
##isure
shell
hardware
nbs
##80
examples
##econom
somewhat
##2b
placebo
actors
studied
resort
addressed
okay
displ
lows
furn
marketplace
ranging
steven
begins
miami
egy
##opol
##away
ticket
refund
nfl
##iking
##life
amended
definition
corner
prohib
##rust
diagnosed
interaction
specialist
##akh
lev
moscow
exit
confirmation
ment
difficulties
##bur
##ourne
electr
matur
comply
recruit
sounds
honest
##water
blockchain
##2020
trigger
proper
resurg
complicated
grab
anonym
macron
serves
inquir
telephone
archive
##idency
responding
armed
breakthrough
remdes
boy
muscle
ppp
surging
##icious
submitted
brad
##tse
talked
##roduce
native
departments
##ati
stations
##oral
authent
##ellers
remdesivir
fossil
الم
yell
violent
lifest
poland
##vere
stretch
satell
picks
certific
pause
##ulating
telegr
ages
newsletters
films
profitable
##dy
pill
busy
helpful
##oney
visual
jpm
referred
##uru
cum
columbia
carefully
##beat
entit
persons
environments
hopefully
panic
##24
demograph
intend
diam
lew
##izz
ron
chancell
hunt
##ope
##anged
pulled
egypt
##ja
##oqu
charity
referring
indirect
gulf
vig
unr
isolated
rot
innovations
defe
counties
kevin
capitol
lean
typical
tables
nigeria
atlanta
pilot
##apol
inspired
##ennis
scrut
jack
allocation
##77
##ression
clinic
payroll
atm
desk
##orous
assume
temperatures
warehouse
limiting
broker
threatened
icon
divided
dutch
vertical
##vo
kitch
seed
tournament
##erry
##60
stressed
diagnostics
drawn
shipments
shed
shouldn
brazilian
rio
blame
likelihood
##bourne
emir
stanley
nobody
ballots
favorable
slowing
inventories
semiconductor
syst
afghanistan
soph
pound
toler
simpl
tips
allegations
proposals
advisor
incorporated
theme
treating
simon
boosted
##cap
##ila
nbsp
ingredients
journalist
tact
unp
arts
##ان
leases
broken
yuan
appointment
hesit
messaging
interactions
antiviral
brook
dre
##mented
beng
characteristics
##cont
directed
##fc
##essional
leisure
param
##etime
trace
##acies
academy
cookies
nbc
settle
distress
allocated
pursuant
recommends
houses
eased
han
arrive
multim
##opharm
precautions
105
announcing
metals
##eping
##ctions
adjustment
sponsors
deterior
snow
matth
ftse
banc
facilitate
crimes
##arr
faith
##pts
manufacturer
deposit
migration
fatigue
##ilateral
##empts
##haust
cinem
opposed
##arch
##isms
pressing
##stone
overcome
deeper
teaching
dying
160
issuance
payable
charles
wipes
orient
renewed
salary
greg
fallout
##asters
studio
libert
ties
everywhere
anc
theaters
##mc
policymakers
protocol
exhaust
suddenly
malaysia
disappear
pointing
azerbaijan
103
chancellor
pregnant
choices
shale
expire
intermed
liver
kat
##enez
seeks
lasting
cares
cope
ontario
failing
abortion
195
footprint
volatile
solic
territor
##lu
cp
##aka
thor
authentic
danger
philippines
accuracy
##eff
defer
##contin
disinfect
upper
cart
preserve
indigen
sum
teacher
nearby
hate
visiting
picked
fitness
##ids
intends
instructions
visibility
launching
blind
regime
##mates
melbourne
nu
identifying
shifted
350
beverage
migrant
disappoint
suspected
fired
phen
##atories
catast
forcing
##will
arrest
hind
##adel
##oline
outperformed
3d
joseph
chile
triggered
lake
ngi
incredibly
bird
attempts
refugees
##ole
eating
##adesh
tasks
congressional
welf
onc
##ologists
camera
defence
##loroqu
tiktok
alerts
##43
##osi
vit
##atured
reverse
excellent
elevated
unn
honor
chances
unusual
replic
seasonal
pledged
interpret
consent
##unction
demonstrate
remark
collections
rolled
injury
filled
village
systemic
linkedin
sovere
leaves
##lets
visa
participating
welfare
##reek
##pet
districts
##hous
ws
##amin
programmes
debut
##uits
walking
impose
enrol
thirds
contents
indicates
substit
plasma
ott
surviv
male
nutrition
##loroquine
brother
bh
featured
architecture
hoped
enjo
fuels
destroy
##inter
interact
wholesale
homeless
##iger
forest
evac
fortun
nord
sd
kinds
iot
bookings
propr
focuses
threatening
conspiracy
underway
desire
attended
kent
cro
ted
mn
gav
knowing
spectrum
experiment
surgical
pent
traveling
adam
crop
clothing
dublin
topic
corporations
hits
stars
##agen
handful
declar
episode
subur
tons
adj
##ews
hosted
##osures
imf
lawyer
officially
resign
admissions
submit
##wear
lon
containerid
nam
prolong
fields
courses
lies
greece
objective
queen
##ensions
disrupted
atlantic
indigenous
kir
trem
bengal
bat
wing
dna
surgery
troub
jord
##lyn
pursue
##etts
morrison
viewed
winners
colomb
thres
palest
carl
alb
portfolios
outr
functions
##eller
slowed
neighbour
odds
threshold
hem
##otic
exciting
stepped
stone
enormous
reck
consistently
##isive
##athy
traject
physician
speaker
harvard
pure
##ilead
von
trained
structures
exceptional
##eb
corruption
mobil
turns
sanders
dans
twenty
##000
fores
column
unions
condensed
incentives
argue
##bul
##achus
operated
contest
##ache
latter
embed
headquarters
rivals
unlock
therapeutic
mp
##achusetts
properly
wins
gaps
contributing
containing
musk
retro
ports
favorite
connectivity
syndicate
diversityinc
taste
massachusetts
##bean
artists
incentive
locked
##iful
grapp
sed
hire
disabilities
syria
preced
movements
##ingu
enroll
ampl
gilead
##phones
robin
mode
##idad
nomine
islands
##guard
##mond
copy
109
evaluating
graphic
nasa
bacter
decent
disinf
mm
borrowers
##len
connections
utility
picking
guy
2007
methodology
##aza
preparation
arriving
roads
rejected
hamp
attending
##odes
trick
##uda
##ules
relation
resurgence
106
kelly
##ospace
vessels
recommendation
frustr
understood
misle
cataly
golf
correl
##ansas
recovering
pedi
##alled
jam
corresponding
introduce
bip
rsquo
mechanism
obst
trucks
intense
safer
importantly
recept
letters
lawsuit
capable
scene
backlog
##ova
pieces
achieving
feedback
execution
prevalence
ye
caps
##mann
empowering
overwhelming
lifting
170
uae
##dog
americas
guys
pad
earning
soared
##ylum
##ima
contemp
absent
spin
herein
lifestyle
trades
##ilton
generating
lgb
##oking
750
beating
hay
icu
raises
frequent
##flow
alternatives
scientist
mile
##esis
amazing
fabric
1995
reputation
enact
jacks
##erman
asylum
wine
shir
implied
extract
##ovic
moments
cooper
traum
ecb
accordingly
##ii
newswire
reforms
recurring
barbara
extending
gasoline
190
ceremony
statistical
synth
diamond
feat
##ين
shrink
ransomware
reactions
exempt
scan
button
warrant
115
scores
jonathan
##how
visited
continuous
##economic
bath
reads
incredible
##lon
continuously
constantly
по
shutdowns
smartphone
##acking
encoun
sacr
propriet
jpmorgan
##iration
##aska
accessibility
dc
passing
joy
surprised
giants
##pan
##icing
cryptoc
mountain
involves
eliz
fake
##aki
files
##ofi
ward
communicate
##part
finances
quantitative
oral
presidency
##ecd
488
emirates
##abeth
spokeswoman
warnings
outlets
interactive
excluded
tremend
##consin
merck
selection
gates
promoting
subscriptions
jackson
headed
pneumonia
suspension
20200
##ika
norway
rises
voluntary
wisconsin
seattle
##ancies
guided
cryptocurr
ambitious
vel
christian
consc
##ashing
miller
antigen
towns
cow
advances
advisers
portug
impacting
extr
h1
102
courts
distribute
patent
weaker
##agon
beer
##loyed
arms
planes
##bot
infecting
publishing
multimedia
andre
pelosi
##ensing
107
bush
emails
lewis
counts
researcher
##date
analyze
##ector
actor
2003
criticized
##linker
molecular
gaining
ore
utilities
ty
prompting
sant
##fers
celebrate
permitted
##otyp
##weight
baseline
climb
##arity
writer
webin
kilomet
um
ct
inh
quarantined
getty
misleading
turk
##то
patrick
dens
nba
##gers
##atar
travellers
troops
knock
competing
pret
commodities
casual
curbs
consists
slower
regulator
garden
careful
tear
entity
discretion
pione
aerospace
cure
likes
chosen
attributed
notable
wellness
counsel
bolson
fulfill
apparent
contraction
pandemics
commentaries
##bel
apartment
terminal
wang
protections
indoors
scand
lawyers
##inn
nonprofit
manufacture
chips
urging
replaced
##29
poised
priced
haz
marketwatch
define
##emption
jordan
personalized
girl
annivers
##enter
sanofi
bolsonaro
gate
thro
neuro
telecom
phd
enth
tam
ug
corn
conce
bios
clarity
sole
drew
tiss
controversial
dun
crowded
من
receivables
mexican
transmiss
mitch
wet
plunged
functional
abbott
gs
##cements
phones
tariffs
##roid
seam
contagious
checking
booking
calculations
destination
##anth
capability
gathered
mutual
veteran
valuations
betting
budgets
venez
bever
trajectory
como
regen
socially
tip
hug
пр
chaos
stayed
tenants
dealers
gotten
##ер
##encia
lgbt
moody
formed
dress
hurricane
bm
premarket
conventional
pending
##burs
##eras
##zone
##being
##uting
whereas
impressive
palestin
kit
jenn
chen
boosting
contributor
stockp
104
famous
reward
ideal
titled
echo
##worthy
reveals
lam
hospitalization
ventilation
expenditure
keeps
kam
mps
##vey
##iture
kitchen
belong
outdoors
wellbeing
camps
laboratories
spac
shaping
etfs
ru
clinics
##ito
perce
proceedings
toy
elizabeth
undersc
##post
opens
replay
##iti
activist
##news
anniversary
ring
##unic
supplemental
sister
chamber
disclaimer
signals
accessing
goodwill
aven
fant
techniques
promotions
##gm
##bus
108
inflammatory
experimental
halted
nsw
##uated
acts
matches
routes
warns
sensors
carib
forget
##etics
bnt
recognised
##45
mart
indexes
overwhelmed
##imm
aiming
approv
ounce
factset
venezuel
franchise
##bes
illustr
investigations
saved
engaging
##acao
sugar
inflammation
voc
progressive
cater
ambass
sparked
belgium
fool
##icken
nurse
medicare
assessed
berlin
ft
credits
desperately
engineers
proprietary
predictions
warming
incurred
ventilator
josh
carn
atmosp
##enture
##lord
##winds
underwr
adoles
indication
metric
donations
privile
##ли
indicator
weapons
holly
legit
absolute
calc
constraints
disch
compare
##donald
milestone
##nology
ruled
hid
advanc
popularity
rum
embrace
manchester
##itan
##icide
oc
intelligent
certified
pays
reluct
ng
assurance
exploring
whit
##omin
settled
equally
smell
brows
pc
slo
deserve
mckin
alber
analyzed
vl
##asive
correction
##apolis
trop
senators
rav
##amer
dominant
pit
bias
eliminate
sporting
applying
continuity
investigate
##aron
approve
chase
crunch
tri
lind
thoughts
conversion
layoffs
leveraging
##ль
mitigation
schemes
emergence
chemicals
##ido
##rible
pocket
incidents
leban
colorado
disposal
sized
reporter
tender
drawing
##ummary
##69
##xic
contracting
tracked
pages
##oton
diet
brew
elim
everyday
communist
command
millenn
##cher
describe
gut
awarded
beaut
##icted
negatively
guarantees
mi
##avor
tsx
dropping
ballot
##wal
acid
phenom
cancellation
demanding
fatalities
totally
##lessly
bud
agricultural
claiming
enthus
gift
##pal
containment
##wart
conclusion
nv
golden
explan
unrest
##ns
jess
##rect
advocates
jr
designated
uptick
accurately
entitled
##heim
mes
variable
cumulative
wars
geography
repair
reh
keen
approvals
rebuild
##ran
wsj
unchanged
##opher
##ifer
covax
fortune
assigned
scrutiny
##apy
sensit
tod
frequency
##isse
timeline
warm
tracks
trim
bulk
downgr
denmark
##kshire
tracker
salaries
vulnerability
##licit
cautioned
haul
abc
telem
totaled
queens
113
hyper
##iated
##ela
geopol
dive
warren
unemployed
profiles
pp
automatically
shad
headlines
construct
distingu
murder
cogn
alib
reveal
##isc
ou
sr
subscribers
fires
##lass
insurers
bounce
##rell
swab
telecomm
biopharm
voices
caribbean
diplomatic
incidence
##theless
123
das
bloc
nevertheless
##erity
smooth
2006
ultra
cbs
appet
buck
developer
marsh
##eva
audi
sooner
strengthening
##places
bob
225
##inton
enforce
##cion
tumb
posed
##agg
compiled
landlord
reth
biological
destinations
hydroxy
cheaper
dip
##wei
resolve
collaps
bangl
absor
discontin
##ji
escape
separation
cluster
derived
##di
beliefs
financially
symbol
##ustration
ded
unav
##005
assessing
tremendous
bans
exhibit
apparel
ebola
simult
bengaluru
iphone
alibaba
distinct
prize
ku
##connell
theater
##ipt
##phy
unveiled
unm
louisiana
oppon
programming
enjoying
simultane
tent
450
differently
particles
sarah
grounds
passion
##aa
telegram
mcconnell
135
wireless
separately
alexander
ss
##90
greenhouse
binding
prolonged
expectation
disag
reiter
therein
wildlife
error
transparent
consolidation
grid
concert
southwest
integrate
##tering
polling
##igating
##ateful
snap
generations
complaints
##83
amounted
locally
shooting
acceptance
##itud
##new
transit
herself
staffing
collectively
interf
contaminated
111
13f
specialty
organized
cm
folks
##weg
beautiful
conducting
waters
##pay
remun
equality
hopeful
sellers
##iop
replacement
habits
unw
tiny
heightened
##upp
ubs
delib
broadband
lar
matthew
##eto
##late
##inois
considerable
exchang
mah
personally
satisfaction
grav
##umin
##ambling
slipped
dh
complement
##ны
hydrogen
clock
membership
##icon
partial
hamm
graduate
##ches
##illa
overt
endors
##summary
tree
2005
physically
robotics
bah
restore
inject
gon
calm
##astics
departure
walked
argument
bomb
fundra
##rete
sight
hua
cad
hosts
##lan
jason
##emen
herd
wealthy
appointments
prud
evolve
wy
championship
entr
productive
termin
newsom
superior
counting
movies
##3a
solidarity
triple
territories
swim
dated
adversely
soaring
##rued
rethink
installed
multip
assessments
aspect
assuming
anton
quart
permanently
cz
equipped
consultant
hydroxych
attendance
cosm
##ascular
##ulations
jin
contractors
bn
citizen
interior
colon
harass
bearing
##een
expression
yellow
##fire
amendment
farming
condem
hawai
foresee
##edited
artist
efficiently
##zh
##anmar
intel
##iner
minimize
rou
##my
##asio
reportlinker
classic
laugh
dubai
dall
##plus
paych
flash
err
deleg
plumm
horizon
##ит
suspend
assault
funeral
##rett
execute
##liest
bread
##can
classified
hydroxychloroquine
mini
legislative
federation
sams
colleges
studying
intent
nomination
printing
summar
crush
licensed
fluctuations
nev
laur
governmental
rug
bump
fred
detained
lith
drove
yang
shaped
survivors
126
##ار
offs
##اي
tennis
grateful
invasion
##raid
fueled
gloves
myanmar
bron
metrop
pictures
voter
tickets
beverages
insisted
subsequently
spots
wedding
blocked
remov
organizers
strains
arbit
airbn
curf
bipart
promises
##ationally
mechanisms
ay
peru
##points
118
traditionally
beneficial
##achel
pose
##avax
apparently
##lers
symptomatic
prospectus
thorough
sheets
examine
nin
enjoyed
ultimate
accompany
vegas
coupled
witnessed
##olly
##27
accident
illnesses
##ет
crypto
declaration
oversight
sod
confusion
sizes
humanity
roy
austria
featuring
curtail
##uous
reinfor
toil
balances
craft
##udeau
##adelph
occupancy
convenience
speaks
raj
aggressively
literally
norweg
hat
inability
recording
opposite
airbnb
153
##list
appetite
cameras
##ат
philadelph
owing
conscious
rt
negl
veget
116
underperform
conj
##chem
germs
elite
brid
##attan
##zo
##ram
frozen
##hing
##iov
asc
ni
packed
initiated
##rolog
afraid
relying
registering
colombia
inoc
175
announcements
mckinsey
paus
philadelphia
trudeau
##rich
mood
memorial
census
anger
169
##fast
dominated
##arely
bruss
stance
library
dreams
sunak
crore
subsidies
midst
caf
motors
##ali
exacerbated
christopher
benefited
norwegian
bold
stakes
maria
flagship
ger
gab
penet
remuneration
barron
illinois
deuts
narrative
barg
computers
cardi
agile
##ometer
backing
advancing
114
lights
relies
nad
##comed
farms
exclus
satellite
##esc
rober
cul
chose
inquiry
borrowings
112
avoiding
qualify
investigating
exceeded
rallied
welcomed
aids
apolog
##imp
catalyst
##dquo
squad
##iant
refugee
tag
117
luck
responsibilities
disability
resumed
hosting
anticipates
prin
disorders
fer
manh
dict
##km
description
2004
##uing
meg
indicating
minimal
sixth
violations
##war
sweet
guaranteed
2028
admission
mapping
memo
##47
unt
flip
persistent
papers
ross
caring
minnes
skept
gym
merkel
gang
2001
baseball
##ivo
##endo
kenya
recipients
dash
instrument
baker
rated
livest
dogs
##aware
disproportionately
repeat
##adas
gn
reel
##hot
viable
airways
133
brussels
quot
peloton
jean
cf
advantages
##pool
##edy
thin
upgrade
##drop
mounting
murphy
gau
craz
mouth
##stan
metropol
##vide
rebounded
derivatives
appearance
coverings
seasons
designer
affects
bipartisan
##state
##min
showc
slam
bags
nest
minnesota
##sa
lyn
##rd
habit
diego
commented
coronaviruses
handed
##aires
relatives
sweeping
rocket
moder
concrete
ethical
co2
ceos
skilled
360
constitute
inevitable
overd
##ishi
viewers
rounds
fargo
milk
pickup
phenomen
2050
ace
kur
transcript
representation
accumulated
stark
tangible
##rix
urgency
considers
bangladesh
immigrants
visible
thomson
ambassador
fert
lucky
suscept
alphabet
swing
injection
psychological
lop
##houses
sovereign
ratios
124
tone
retention
##aya
forem
postal
positioning
##iminals
hole
affir
semi
maturity
variations
cleared
breaks
mars
agreeing
biotechnology
cort
seconds
sensitivity
foster
##ete
##ycle
intermediate
retired
reminder
jerome
furloughed
dir
canadians
fraction
##28
salv
119
sg
qatar
lp
lapt
##overs
ottawa
novavax
wheel
pregnancy
dod
abe
##ista
##ulty
forever
instant
austin
madrid
excludes
resorts
badly
gro
pharmacy
destr
drinking
governing
prosecutors
на
geo
py
interviewed
concentration
imported
gent
strongest
samsung
expressions
singh
##usal
dos
cancellations
blamed
donors
significance
desperate
winds
##ishment
moon
##ergies
128
besides
socio
boards
exclude
##uy
identification
kate
£3
marking
systematic
ina
perpet
lunch
cambridge
abuses
coven
biod
##around
huawei
manhattan
soldiers
internationally
licensing
##umab
ons
dipped
##rupted
kentucky
##ray
##ovirus
processed
prioritize
veterans
cookie
destruction
greek
milan
##rec
##no
incremental
balanced
€1
jen
anyway
publications
spotlight
breast
##ogenic
accommodation
rational
sophistic
auction
portugal
discip
unnecess
mainstream
nerv
topped
feas
safeguard
drops
allowance
145
schedules
stro
reduces
##obj
subjects
toxic
concess
radical
bund
config
metres
collaborative
2q
preparedness
lob
prospective
clust
android
##ointing
##casts
predicts
##ulture
convertible
hp
modi
charter
##erved
thrive
##swire
complaint
##oto
charl
supervis
fruit
loyalty
compass
benefici
##atorium
assumed
telecommunic
ing
minus
abd
dal
nominee
ark
medication
davis
australians
careg
injuries
sorry
henry
recre
oncology
hero
optimize
##elli
barely
princess
##sters
scottish
vigil
throat
geopolitical
##roit
exchanges
ordering
unfold
dy
ka
lists
generates
complexity
wise
365
hollywood
modified
foremost
disasters
married
##avir
##allel
sty
removing
pediatric
delivers
##ibr
##otherapy
principle
##anna
greatly
scenes
##ilst
confront
magnitude
ling
stap
alive
##eman
russell
plunge
eco
blocks
mistake
somebody
urge
nike
##ager
diversified
imaging
describes
achievements
charging
corona
genu
dallas
va
127
##93
##65
discussing
sher
harbor
##regon
gbp
remarkable
220
vessel
produces
drill
concentrated
politically
##oh
dispute
##video
attachments
accountability
oregon
##ship
hispan
scal
specialized
diesel
##itage
forecasting
attendees
mechanical
##advant
measurement
nevada
evaluated
sv
certification
perceived
electrical
##aving
headache
minne
bolster
bets
cork
hanc
cock
vacation
dad
emphasis
##ques
sourcing
##research
pride
mcdonald
amc
230
varied
##fi
137
transmissible
##ون
gran
invited
##ко
procedure
merchand
pubs
attached
zhang
transferred
electoral
dimin
connecting
arising
skill
advertis
##dc
upload
guest
conservation
rome
listening
resistant
tightening
hence
carries
backdrop
clothes
##48
adjusting
risky
##icket
chan
proceeding
##eters
cot
gp
hancock
##pta
minneapolis
pig
divest
circular
whilst
naturally
islamic
acceleration
somewhere
emergencies
furniture
screens
motion
demographic
audiences
lungs
##iere
ineff
clinton
donated
iranian
consort
eurozone
utilization
promotion
buc
dish
gauge
legend
hired
edited
occasion
recycling
karen
gradual
coordinated
ranks
dol
circuit
tourist
recruitment
challenged
eager
##wall
pledge
bikes
##antis
parking
##vest
##igo
marginal
##ni
boxes
repurchase
stamp
alter
monoc
disadvant
poc
vout
mb
stored
issuing
advocacy
##oric
discour
cg
advertise
##iters
institutes
crown
##ighth
arth
bry
##lah
##inces
founders
donation
weighed
guil
tall
commonly
tuber
alaska
##iors
##55
studios
unh
astron
root
restrain
proxim
salmon
##edicine
##ui
disorder
designers
carnival
algorithms
simultaneously
capex
##ogether
meal
soccer
##kers
introducing
anch
calculation
demonstrators
distract
2002
undertake
profound
sap
withdrawal
fishing
fulfilling
parag
##ifi
maryland
quantum
zones
upward
mandated
##uchin
silicon
establishing
defeat
warrants
declare
meters
sque
seoul
headline
dave
mamm
fines
morningstar
intact
##airy
tort
partnered
uncon
##rep
refr
rice
wolf
racist
harvest
dance
stringent
riding
highlighting
bpd
fiber
customs
arguing
instruct
bain
lun
121
annualized
resh
securing
graham
remainder
coordination
lifetime
talib
qui
##umber
hots
188
spx
##artered
formula
dilig
##itiv
coinc
thermal
vlad
boat
magic
disparities
theories
provinces
thereby
revise
antibiot
mothers
milit
hars
noticed
moh
sanitizer
paycheck
struggles
inherent
wan
shorter
moral
failures
biology
vr
turnaround
costly
barrier
occurring
tm
surpassed
gay
lisa
facial
hike
##osa
venue
wilson
justin
consultation
placing
worrying
livelihood
enrolled
supportive
129
rarely
bonus
pier
##ем
lender
till
tony
relate
removal
passes
dor
ethiop
algorithm
samp
ان
designs
injured
pleas
##jet
lor
##inity
##ии
considerations
travelling
bak
info
involvement
o3a
fluid
equitable
municipal
hotsp
tea
##ucker
philip
nationals
childhood
provinc
##top
anxious
translation
likewise
iq
nancy
downward
premiums
harry
nose
212
stun
critically
suppress
amy
##istically
tailored
utm
accomplish
applies
240
##oa
strip
phr
downside
enrollment
palm
jets
suspect
advocate
cramer
bankers
shadow
atmosphere
dairy
microbi
##afe
gavin
lip
arrangement
turkish
td
width
xin
##burgh
##beit
steadily
##lined
adopting
insuff
irr
##75
##anied
##ami
sells
relied
##inely
##elve
mnuchin
suitable
behaviors
##imb
heritage
domain
inaug
manif
shuttered
shoot
blu
prevail
attempted
economically
oklah
donate
ethics
determining
##adequ
dak
pray
phill
founding
receptor
divide
dating
##mph
substitute
tropical
deutsche
terrible
reimburs
documented
taliban
##ول
ard
buffett
inadequ
merely
kaz
paraly
revive
covid19
ali
dialogue
birthday
stig
immunization
meantime
suicide
sequencing
##opro
disappointed
catal
##xon
headquartered
dump
##ия
painful
revolving
hud
detroit
lv
objects
exposing
incomes
disclose
shutting
##bar
airbus
huff
rab
slack
accompanying
seemingly
##thy
limitation
##ים
cable
twelve
prevented
kon
##ות
liberty
##umar
##fires
##rocket
marriage
booked
metropolitan
##alling
122
constitutional
yeah
addresses
determination
fy20
alab
northeast
spoken
versions
volunteer
oklahoma
navy
##owa
jurisdictions
pulling
gyms
##yen
##ferencing
captured
autumn
attempting
manual
##elo
consortium
nervous
oecd
unal
venezuela
cush
##44
childcare
peaceful
comparing
neu
recognise
aap
distur
##esa
api
achievement
ignore
##oe
array
737
noneth
fid
permit
ranking
questioned
choosing
nonetheless
anymore
genom
moratorium
ric
contactless
trees
trailing
cryst
136
andy
##rog
catastroph
enforced
basketball
sab
vulnerabilities
glad
##clin
aligned
hardly
##olas
##wo
cohen
210
boosters
##stered
quad
onboard
entrepreneur
compromise
ally
assign
overl
155
##ource
fundamentals
sophisticated
pup
pomp
##dam
surplus
telemedicine
##flows
datas
vaccinate
naz
refinitiv
influential
##ema
blast
tradem
mumb
anderson
##го
noise
##ounced
solicitation
diver
pilots
aquac
willingness
demonstrations
trending
crackdown
accrued
nih
tweets
lilly
beef
hadn
##culosis
lebanon
compelling
leather
camb
resolved
prest
investigators
##zi
£2
##ching
132
##bro
burning
##borne
kre
##okovic
whenever
damaged
##bec
certificate
definitive
alabama
##eding
discretionary
signature
##ра
supermarket
harmful
beaches
nationally
retrosp
##arn
##acked
fled
billionaire
tut
adh
crazy
bcf
165
liu
##win
argues
collecting
consultancy
##mh
accus
workplaces
144
pursuing
followers
jama
rb
quoted
berkshire
skyrocket
duties
proactive
allergy
legally
##comm
oversee
dual
avoided
nato
##emble
tuberculosis
##bury
collins
138
buyer
djokovic
subscribing
##aux
##imir
cra
blasio
##parts
precaution
receivable
tissue
##hy
131
hond
grim
##assy
leak
briefly
##ام
feelings
cryptocurrency
jay
##ocation
psychi
destroyed
unif
##entially
coordin
##iders
performances
indef
sponsored
bnt16
competitor
crossing
transmitted
hawaii
instruction
mumbai
expon
contingent
dismissed
##chen
breaches
tower
134
##hana
cooking
isolating
whats
mines
clash
##arbon
unaltered
smartphones
##lich
##99
thrown
undue
unedited
provincial
oak
##omfort
speculation
letting
renewables
wholly
##iser
establishment
ambul
benchmar
##acles
geographies
##aine
1q
bc
abandoned
speakers
mg
boys
grades
##oper
clinicians
sterling
containers
comparisons
jurisdiction
fx
jewish
strang
anybody
utah
colleague
arrivals
shocks
allen
taught
chicken
260
influenc
stopping
conflicts
precious
allegedly
##group
precision
##bell
148
flaw
disappointing
alumin
retrie
brothers
##under
##escent
commons
tie
rugby
unfair
regulated
damp
##base
shore
barcel
curfew
preferences
drama
genome
unnecessary
ferr
swedish
explicit
restrict
adapted
hispanic
185
hypoth
wanting
virolog
informal
aquaculture
##33
##idas
barcl
categor
vladimir
3m
##jiang
credential
salesforce
sla
##berry
predomin
jennifer
n95
downs
neutralizing
toyota
##ippers
foreseeable
beta
##rapped
##iox
toilet
counterparts
derivative
##inos
laura
webinar
##anded
reserv
dinner
walls
flav
adolesc
##clinical
sensor
stagg
incumb
sentence
##oplayer
safest
lucrative
barcelona
##rock
ja
##urer
theatre
rit
hav
aws
anal
guilty
hf
wipe
tackling
digitally
pron
capita
worsening
layer
motivated
colour
##newswire
smoke
howard
whatsapp
smes
permits
feared
brooklyn
gest
captain
##urt
premises
refinery
woods
spark
forefront
##card
kansas
acceptable
convenient
thir
bin
vest
##ها
examined
pti
counted
variables
merchants
looming
pess
geneva
custody
catching
##bound
sean
spotify
sie
insufficient
139
parliamentary
##pinned
seekers
lane
##icking
doubling
machin
##ibles
bacteria
quartz
##cop
relaxed
##tle
threatens
pulmon
rup
sov
wondering
angry
frustration
##esus
placement
cumm
density
detain
disclosures
predicting
rhet
excellence
##math
podcasts
penalty
bt
regeneron
cognitive
##ogens
##istry
judges
receives
engineer
##report
##iev
moore
fragile
##adic
redund
loud
fah
##arus
143
circulating
ces
hash
landlords
pear
careers
##heit
thinkers
existence
len
cement
optimal
climbing
footage
registr
##cor
advises
transpl
comprised
penetration
probable
junior
spo
mistakes
pivotal
tumbled
dear
fel
bb
ncov
probability
fatal
prisons
conting
inters
poses
lesson
orange
plug
meets
reliability
unpr
intensity
stepping
##emat
malaria
prnewswire
leasing
##gas
disinfecting
asks
##amente
monoclon
publisher
vin
spikes
scored
##anka
hell
quote
distinguish
##inced
transfers
themes
counterpart
manip
##arged
translate
rallies
##dles
telecommunications
matern
faculty
ns
spam
aging
146
metro
##keep
philos
indefin
##rooms
##itudes
عل
collaborate
##stock
headwinds
hc
ignored
occas
phenomenon
##adays
evident
##pc
nowadays
turnover
unreal
susan
neighbors
francis
singer
convinced
charities
supermarkets
##од
topical
##obile
hidden
precise
##htt
sony
clusters
dent
prefect
obes
browser
mississ
altogether
indications
influenced
videoplayer
##nering
##oms
participant
yemen
ze
msci
ios
harassment
discounts
harsh
##igroup
scaling
starb
الت
inequalities
accommodate
positivity
bust
##ivan
centric
1990s
reviewing
hunger
lod
creditors
zu
suisse
approaching
arise
propag
monoclonal
assert
yoy
attracted
lopez
##umer
183
weighing
##iro
prisoners
suga
acted
queensland
undermine
##sea
roof
longest
##63
uniform
##athon
actionable
reluctant
folder
650
manufactured
explanation
hackers
album
a2
arc
feder
bnt162b
##auc
impl
stol
lowered
##ige
##apers
270
aftermath
riot
albeit
avenue
gil
statut
##omed
probe
strange
cardiov
##eco
ale
##reach
hungary
hikes
##58
##ير
twin
brutality
roberts
sacrif
aj
unity
inadequate
kidney
antonio
batch
joins
inspire
czech
##edict
hubs
striking
associations
chatbot
obesity
wound
##icut
hart
shah
spy
##ocy
hugh
praised
##tors
demonstrates
grass
softbank
starbucks
uncover
judgment
sevent
brist
empire
structured
rend
liverpool
ein
lighting
blocking
roche
rede
undergo
opted
iowa
droplets
fern
prescrib
alike
trains
edward
defining
refers
titles
specified
##kei
tob
divisions
agm
##hand
energ
malls
larry
turmo
pt
##pace
sponsorship
##ucting
##rous
tenness
turmoil
401
kenn
weakened
##giving
privately
ffo
patch
shortfall
alberta
uptake
wore
##esco
confined
groceries
surges
##heimer
##omy
stephan
unle
spray
iconic
casino
ell
147
exemption
##inda
languages
wti
stops
spectators
appe
connecticut
##och
controversy
urgently
moderniz
disposable
incomp
invasive
modeling
proximity
cardiovascular
##eta
substance
sull
machinery
rash
obstr
##rimin
interpretation
gpt
tries
huffpost
predecess
berg
cytok
heating
thread
promoted
formally
oli
##tes
deferral
collapsed
dean
ultr
##59
downing
158
ambition
handled
##owners
js
nag
combining
theor
modernizr
##uates
##vs
polar
soviet
coughing
hans
scared
plastics
##zn
portal
bullet
unpredict
sore
statutory
##marc
##https
cola
citigroup
strengthened
arguments
nikkei
radar
networking
##map
deport
##icul
186
amongst
exxon
syrian
##ocked
##iked
imperial
reiterated
string
##ippi
irs
tennessee
tactics
alpha
threaten
compromised
residence
epidemiology
embedded
instances
participated
predictive
branches
merchandise
nowhere
reasonably
##adox
barack
presenting
enhancing
189
describing
##ardo
exhibition
refres
dealt
occurs
pharmacies
cellular
149
scandal
barclays
matching
km
inspect
172
privilege
perception
brick
cens
engines
earliest
154
considerably
trauma
edged
quebec
bowl
susceptible
assumption
kicked
contacted
discontinued
##oz
fing
persu
imposing
progression
lawsuits
paragraph
dm
sobre
encry
compares
wherever
answered
distributions
societies
upgraded
142
paint
disinformation
pall
sits
organisers
repayment
functioning
chev
tougher
amendments
sri
141
poorer
jefferies
156
refining
averaged
oriented
kais
cycles
4q
##met
specialists
fier
phishing
kay
sail
quit
rigorous
fried
173
yu
fundraising
##lash
educate
damaging
##oxx
lect
##acent
##enger
battling
##chi
automakers
filling
raging
bearish
downtown
lady
fundamentally
1st
debts
issn
ian
nit
alexand
pompeo
legitimate
assay
##ед
##abi
server
behavioral
shelves
converted
mississippi
branded
pathogens
exclusively
##step
shake
longtime
flooding
appeals
orch
001
cricket
plate
rider
disruptive
plot
serum
trader
certainty
##rolls
termination
157
##urrence
arena
desantis
mack
rides
205
##erto
dakota
rosen
##sten
warehouses
##hu
##oen
##mente
monitored
combine
swiftly
soil
defended
constitu
excessive
snaps
sequence
technique
touched
rodr
bnt162b2
macroeconomic
celeb
charts
pharmac
coca
palestinian
##iller
retained
1990
parallel
##idos
exped
##vis
##ouri
ethnicity
decentral
##days
criticised
vowed
jinping
attacked
pulmonary
benz
presidents
gc
agility
builds
pathogen
wonderful
abn
hey
eligibility
nucle
neck
shin
mais
circle
michelle
classification
batteries
##elson
bart
gast
prescription
tends
280
segmented
resumption
slashed
##67
##hey
##estation
hsbc
mature
traction
giro
evolved
##fund
leon
##power
embassy
palace
experiments
extends
duke
measuring
ukrainian
##zhou
bookmark
hog
##acon
contractual
##gy
choc
bunch
traged
refuse
preventive
##53
belarus
gupta
confron
landing
aux
poorest
mund
originated
codes
collateral
passport
slated
sections
completing
seamless
belt
randomized
coat
164
##wick
159
shortness
reit
khan
terrorism
##esth
##opp
dex
fulfillment
prosperity
550
##chemical
fc
traveled
biomet
stays
infer
imarc
efficiencies
##bh
##vering
gray
reun
##ompass
abund
perspect
jeffrey
catastrophic
dust
orth
##amento
rhetoric
organizational
surely
accepting
tags
needing
163
bj
defensive
ambitions
177
meta
consequence
##rx
inval
polled
malware
##otte
##aciones
fate
abu
##nedy
strikes
realizing
jpg
discipline
##sis
178
##itably
compuls
postpone
opponents
takeover
coastal
mlb
marit
favorites
gps
conjunction
##vy
rubber
epicenter
partnering
chest
varying
rapp
cocktail
delaware
igg
##una
explosion
fond
sist
optimization
asth
aus
indices
reversal
interpre
##ean
reject
formerly
penalties
pathway
kal
phased
congest
tiff
enacted
##held
accessories
##inner
affiliates
152
1999
##ography
encompass
##ecks
kennedy
resignation
neurolog
##ava
accountable
pv
laund
chatbots
demanded
verm
##rah
tension
##nik
##cia
##western
peps
installation
187
##rent
##mi
biolog
fet
g20
worksh
##اد
##atem
interven
modelling
utc
##aved
cyberatt
##child
medications
##owski
##nc
preference
tamp
ramping
bats
esc
##grad
176
distributors
151
##kh
shipped
##iph
boyc
este
intim
tablet
jessica
##vidia
servic
frustrated
appreciation
statewide
##atri
digits
##kr
discrimin
##each
stoxx
##fri
overlap
thanksgiving
dup
conservatives
livelihoods
##opard
offline
disconn
blan
porter
administrators
fedex
##eds
crystal
##aco
acquiring
mindset
##low
esta
adolescents
##yer
kg
neil
cameron
dashboard
coaches
aides
##88
norms
oliver
celebrated
hazard
basin
practition
emphasized
evans
motley
financials
##fin
mers
##icop
fasc
soy
##ensky
hominem
##haul
lord
functionality
hann
connects
bos
sib
jak
##data
eve
cautionary
kaiser
##uity
shenz
celebration
##eur
realistic
grace
conval
latino
lens
nvidia
angela
marriott
accenture
backlash
reag
accompanied
torn
1980s
##ras
diox
loos
marshall
solo
holder
anytime
philosoph
relie
##rawn
transplant
dys
drones
unified
##ipe
naval
railway
##press
finland
topically
204
alarming
lithium
pes
##pson
hubei
holl
explaining
adams
##oub
stal
calculate
168
generous
filter
compassion
craig
pmi
preclinical
buses
lgbtq
imperative
##usive
##agers
krist
shenzhen
##eness
infopro
##lements
omn
clearing
##page
scholars
precis
emotion
obstacles
decarbon
loop
tb
affiliate
carg
stalled
##gel
##republic
medal
deliber
##orrect
kap
inacc
166
ecu
rents
sudan
reversed
flee
shelf
##orate
##iously
grows
suggestions
mortar
174
deciding
replacing
reproduced
drone
occupied
edt
adapting
على
issuer
aeros
jd
##strom
##shire
recalled
##gender
injust
streams
sanitation
medicaid
231
encounter
##manuel
yog
underwriting
162
tire
##inst
fame
fought
tract
conclus
reliant
##uration
explores
postpon
##astically
edits
cbd
piz
matrix
transformed
213
genes
lyft
assumes
167
gw
impeach
niss
biomed
chel
dioxide
cease
emmanuel
mirror
rhe
##oter
gif
mate
certificates
testim
##ivation
sao
unpaid
##atr
comor
blunt
commercialization
rbc
##inge
antit
breathe
petition
citi
235
independently
bottlen
sorts
scaled
saint
delaying
incorporate
##ads
spa
##rate
alan
wildfires
markit
horse
##ocon
maritime
shoes
seniors
##caster
guatem
الع
tired
##je
automatic
allevi
hardship
ihs
openings
pupils
##zing
negotiating
desc
maximize
##found
##imab
nl
epidemiological
confirms
340
malicious
confidential
regim
cyclical
fantastic
chocol
##tu
stanford
incorrect
##ро
paused
179
chand
couples
dot
criminals
honey
ti
chi
missouri
rolls
mergers
bps
##abled
endpoint
classrooms
ghana
mul
184
clark
bots
minorities
oz
tory
dependence
apac
wen
authorised
vanc
##ие
##anthrop
floating
neighborhoods
##adi
##prom
resid
##york
knee
chuck
asthma
ende
grat
##mate
##ulent
investigated
consequently
wai
phases
eliminating
##lando
discipl
850
cinemas
strengths
elon
auditor
sullivan
relates
lobb
##uana
irre
##eting
techrepublic
outsour
##ulin
sponsor
rankings
roch
patr
diversification
##inson
161
emotions
contagion
cox
enzy
releasing
notion
slate
tonight
leveraged
positively
mull
##laim
deploying
tours
satisfied
unavoid
##ouver
incoming
attachment
kro
##oshi
neighbourhood
##ylene
##oli
ig
##ouch
##rows
pioneer
collaborations
206
banning
manages
violation
brokers
watchdog
premature
internally
newyork
cis
centered
reproduction
datal
##aucr
hend
intentions
schumer
sek
##issance
181
philanthrop
##mat
overlook
totaling
##uer
prediction
##wich
eua
quarantines
seventh
##asp
upgrades
cambod
stolen
1000
chees
worn
insecurity
mik
fisher
cruises
##acco
notified
checked
spirits
complained
silence
closest
bureaucr
##urray
overc
symp
##elters
lvmh
perspectives
sba
wary
##uz
##itte
buzz
##ipts
upbeat
subsidy
##lif
poorly
tedros
330
##ente
##izable
walker
demonstrating
searching
judicial
##enh
breakup
advent
negotiate
##ortions
uc
obtaining
explosive
lobby
tak
swap
integrating
deny
gnw
fbi
171
indiana
hilton
##yan
bout
dorm
somehow
##patient
pessim
abrupt
##payers
overhaul
origins
niger
combating
weapon
leap
wi
easter
campbell
biodiversity
nr
drastic
proposition
coordinator
forma
##oids
societal
synthetic
lav
orlando
##artner
##ums
ignor
confin
tray
##ologies
##iento
##bear
##asi
##ails
215
exceptions
displaced
##на
##atos
unre
outrage
##inib
spurred
unavoidable
##ims
##erves
cod
analytical
bottles
cummings
vancouver
##pres
verd
convalescent
brill
salt
refunds
zur
mills
licenses
nasal
lymph
observation
parameters
20th
royalty
jointly
harness
##gow
##iano
accusations
fahren
tightened
parad
midnight
heroes
keytr
وال
costa
keytruda
bez
supervision
##gal
transforming
hamilton
underground
cotton
attitudes
##68
resched
osaka
azure
geographical
tunis
elabor
##atherine
arsen
wo
surprisingly
hesitancy
guides
integral
observers
cav
sink
##itement
inmates
dubbed
perfectly
designing
roadmap
anna
stroke
fahrenheit
applicants
maintains
##andez
medit
literature
comorbid
convince
endang
anne
escap
eviction
##ес
transgender
healthier
marathon
182
lunar
bristol
absentee
bic
slid
taxation
necessity
maps
taxpayers
lid
21st
organised
cream
maur
teens
rewards
207
freeze
diplomacy
consuming
episodes
##vac
proving
275
£5
##rolling
##etti
observational
vod
##aven
durable
polish
homeland
iceland
antitrust
passage
nash
##hal
decisive
237
kin
indeb
benn
brun
##icion
secre
matched
grappling
##world
swimming
possibilities
gor
creativity
executed
compulsory
serb
foreigners
fault
credentials
brutal
351
pretax
feeding
appearing
universe
populous
kle
steam
##build
crossed
verification
renov
barrons
##esy
emory
multilateral
bilateral
molecules
awaiting
precisely
copies
dental
seb
tiffany
hd
##acoes
patents
errors
ero
verizon
sep
unic
##loff
hunting
fare
##kar
##erving
solving
cape
uv
policing
survived
cel
pizza
indebted
shame
##glom
approached
holes
grounded
##49
distant
innovate
cardiac
soap
imminent
logistical
helicop
strategists
benj
conferencing
derm
kab
##oly
consultants
horr
gord
smar
bailout
320
upset
partisan
ecuador
politic
nights
sig
muslims
1970s
homeowners
myth
logic
abandon
a2z
##ede
breakfast
tighter
prosecutor
atags
undertaken
pb
hbo
deplet
lowering
epidemiologist
convicted
##ств
displays
outf
jacob
g7
##anim
refusing
presentations
disputes
burned
decreases
documentation
ethiopia
conclude
nathan
mortgages
odd
monitors
353
##ahu
##ommerce
shipment
commissioned
roger
bases
frankly
depressed
charlotte
encourages
brokerage
dick
kath
##holding
enhanc
astrona
streak
##leans
saas
nos
##wealth
ко
charitable
messenger
##tic
revel
affiliated
biopharmaceutical
advise
unpredictable
tang
##rom
inspiration
##artis
employs
celebrating
hepat
fits
##wc
##eastern
3q
##etown
hedging
personality
conclusions
outp
pressed
wheat
murray
turbul
submission
dominate
namely
tragedy
rut
glas
##ogenicity
jeopard
inspection
##iasm
hut
menu
marcus
##matic
##iko
cleaner
finger
theft
defending
visas
songs
5m
manifest
gol
credible
roman
exams
reaches
mutation
pills
neighboring
##ders
terrorist
hip
chills
interfer
caregivers
lets
montreal
##acters
avec
characters
libya
##66
orleans
sew
butter
##azz
contempl
cord
readiness
disagre
##etically
emission
capitalization
autonomy
enthusiasm
passports
outreach
multin
416
desert
shields
millennials
##oenix
##uv
balancing
irresp
observe
conglom
patel
guang
##ла
##enna
stating
identifies
babies
##marketresearch
comedy
underest
generic
tighten
##anol
1996
landed
rushed
recep
escalating
flour
bruce
##iq
##onic
bog
advising
chf
upstream
recoveries
##ست
##count
panels
issuers
ds
draws
diligence
tobacco
##bles
comeback
separated
resigned
beaten
understands
newyorker
##agu
eia
enf
abo
##veland
phoenix
##issa
wool
191
ecommerce
rheum
benjamin
##igar
alz
bun
paths
€3
##gence
reson
automate
responders
reins
actress
horn
310
utilizing
eagle
hob
unac
##actively
mcm
##bial
robotic
ounces
biomedical
luk
conced
countless
##run
concludes
printed
mant
##pton
cybercr
hhs
benefiting
doug
forgot
nissan
##avel
correlation
monu
epidemics
slash
tem
thereof
benchmarks
civilians
##player
firef
slumped
tonne
##with
192
regards
musical
stranded
redist
committees
scor
bonuses
mig
freely
leth
immigrant
touted
additions
guine
conform
analyzing
doubts
lengthy
develops
restraints
improves
kumar
workouts
competit
agrees
gaza
tide
spur
immense
eliminated
ih
stretched
olds
##had
##eliness
sne
##anted
readily
soul
##jected
##loat
credo
landmark
exceeding
nd
seized
freel
michel
cliff
##etr
personas
walt
organizing
predominantly
##gate
brink
suspending
prudent
208
unsec
observations
eleph
fails
retrieved
rick
gartner
melt
aggr
outlet
##aze
##die
broadcaster
sprint
museums
navigating
sourced
payout
shelters
abst
hurdles
todd
chevron
attitude
miscon
soda
##weigh
prevalent
llp
grave
undergoing
cisco
mice
novartis
ost
##essing
propose
uncomfort
aaron
interference
scrap
gsk
##ucking
commonwealth
spacex
##rophe
civilian
noses
courtesy
optical
contempor
ado
dispatch
references
##imic
oracle
confinement
laying
nepal
celebrity
elimination
##ми
lying
seng
editors
tys
honored
makeup
embraced
tune
##ori
##olo
strictly
championships
pg
##irs
comparative
unwa
ibid
recognizing
multinational
##bow
317
earthqu
backs
##ري
crops
exporting
franco
drastically
restrictive
ancient
ace2
pockets
##oln
##rests
##ijuana
thai
regulate
comprising
ecl
##erald
snapshot
##tedly
##ка
##urp
runny
##holm
disabled
treaty
verify
definitions
inevitably
##iciency
medi
dement
firmly
unwavering
lion
vax
##rov
sb
spiked
honour
lining
outweigh
corrid
pilgr
orbit
villages
##friend
bras
escalation
demonst
unsecured
auf
puzz
##gem
afloat
stric
assisted
authentication
mud
deterioration
catastrophe
speeds
gib
gary
fron
dangers
recycled
postponement
stricter
##rogen
##ulu
drugmaker
scrambling
cvs
tub
bare
strat
kan
burst
enthusi
warner
quicker
##ppe
labels
plummeted
interrupt
documentary
##otype
##rence
laud
credibility
chairs
examination
battered
staggering
2nd
##comp
appl
sco
##izers
appli
tian
##fg
viewing
inputs
290
##obs
defl
jumping
bluet
##ся
pope
problematic
milestones
##lab
payrolls
rehabil
nm
carlos
##belt
##van
##aga
cio
##fts
##ashi
testimony
admit
authored
catholic
##85
##ما
demonstration
##inction
incumbent
mans
punch
unaccept
pulse
nestle
peaked
qr
weird
reimag
##isp
##okes
301
distributing
advancements
selloff
©2020
##urrent
reader
bluetooth
##web
boundaries
##uma
airborne
reloc
companion
fb
##mont
weaknesses
reign
authoritarian
supplementary
shout
pathways
mindful
kilometres
dia
morris
rw
whist
trab
leagues
concepts
prc
##لا
swath
crews
gown
##echat
fertil
reimbursement
throwing
mathemat
##jay
1997
suits
trag
fatality
##ecraft
chin
runway
guatemala
##opinner
##itters
videopinner
ker
buckle
1h
##asy
soar
##amped
lawrence
##umph
217
normalcy
cushion
nod
arrests
kw
dominic
10th
andrews
228
617
spanning
discharged
##aults
##mlin
routinely
arsenal
damages
##isk
favourite
satisfy
meter
decreasing
recruiting
sampling
bour
assured
844
appealing
##omi
donor
cafes
linc
chocolate
justify
325
grip
##endra
inhibitor
suburbs
##woven
orchest
offensive
radi
burd
downgraded
ubi
chartered
indefinitely
showcase
exercising
minerals
leaning
echoed
beneficiaries
##etta
##urge
##itty
buybacks
qualifying
stif
booming
jane
hover
lauren
salvador
vector
nonp
364
delighted
occurrence
cinema
composition
##riel
##vie
##ameth
celebrities
restriction
cabin
coordinate
colonial
gordon
gill
finishing
##books
birds
suburban
xia
validation
periodic
progressing
continental
excuse
exclusion
##orestation
209
battles
fiction
roots
kremlin
paulo
jamie
prod
detainees
dementia
worsened
downplay
##annel
##imated
aide
zucker
citation
adequately
variation
lem
cripp
sustaining
reddit
writers
375
wol
frances
referend
inner
blackrock
citizenship
##essential
shoulder
audited
macy
##ivas
pricey
ses
##anche
protects
clearance
tyson
indicative
conviction
bernie
ced
##owing
arguably
receipt
##upid
##icides
disproportionate
kilometers
ana
##esty
shep
graduates
qualitative
tenc
violating
antibiotics
barred
##asone
listings
alzheimer
pact
buoy
throughput
reorgan
ski
##alo
distanced
211
microbes
tempt
##illo
ahmed
decept
quint
##urate
workload
kpm
nex
sedar
##nan
miners
storms
corps
servers
214
acres
missiles
cant
uganda
renewal
incub
robinson
nok
cats
buys
switching
pets
capitalism
expressing
ank
undoub
educators
##را
dominance
sank
hass
maine
##hill
pools
cruz
ie
derail
lincoln
bbl
utilize
lacking
fp
wong
##icism
stack
pepsico
aboard
##sex
##ernews
kamala
interface
mere
bottle
compounds
opio
freedoms
##ril
backgrounds
supplied
northwest
xinjiang
##adh
powder
reinvent
signaled
downstream
memories
shrinking
havoc
##uto
kpmg
rud
##ivated
sas
unanim
smoking
lap
nominated
sticking
trafficking
sadly
encountered
sah
reflection
anonymity
##media
##airo
contrary
discharge
predecessor
displayed
##asm
unlaw
lan
netany
tunnel
adobe
walks
##hares
impression
tanks
rachel
rishi
moham
congestion
scary
addiction
ecosystems
uncomfortable
nobel
silent
diversify
hungry
til
##stit
photographer
245
eventual
chemistry
fd
370
churches
dw
380
navig
viv
seller
arkansas
b2b
coo
injustice
##stop
##izar
polymer
resili
portland
normalized
rena
covenants
lanka
dece
ardern
ioc
tong
##amethasone
mead
##covid
amzn
gou
oldest
dell
ensures
engineered
fortunately
altered
unacceptable
curious
swept
ancest
moroc
bezos
sinc
empathy
utilized
ample
endorsed
genuine
##ritis
spare
educated
inr
tencent
netanyahu
bs
##uating
##iga
watson
logo
manchin
tended
hello
##fty
specializes
vegetables
fixt
interval
premise
nyc
##keeper
peg
restricting
butt
stimulate
dealer
platts
influx
ramped
jeremy
256
##armer
mak
##instance
stunning
##еи
invis
mits
##oni
inflationary
prohibited
goog
formation
trusts
ldquo
np
##atal
celebrations
chiefs
lately
denver
cooling
a2zmarketresearch
vaccinating
cdn
airpl
harb
examining
##arc
recons
brooks
##46
johan
laser
frankf
scarce
##ju
gott
ruth
revisions
potent
aston
spat
realise
preprint
nonwoven
aluminum
rf
##ollection
takeaway
cleveland
phillips
hills
##inski
trapped
rigs
hanging
cos
dexamethasone
retrospective
pork
lifeline
vc
##lay
##eni
1933
hershey
##eno
barn
mond
patri
absorb
##eu
##ки
##next
disturbing
kerry
##ait
##asia
iea
athletic
##mentation
dougl
##ни
filters
888
##burn
comprises
notor
incons
decor
servicing
settlements
undoubtedly
griff
##kee
relent
246
questioning
##enia
waiver
##35
plague
jewel
eighth
icc
mccar
instantly
customized
greens
verticals
gabriel
##owers
pursuit
embracing
anonymous
stef
dign
notifications
revis
inflows
volks
urges
legislature
roc
friction
218
retreat
contemporary
notification
mountains
cere
pipelines
mold
##uten
hospitalised
stemming
concessions
scratch
##ля
toe
proactively
exploit
##ло
##ivia
##oded
##uard
scheduling
neighbouring
inch
hypert
wto
deceptive
##agh
##dogan
guinea
##enberg
coin
##kl
222
rivers
capitalize
wishes
kemp
ignorance
oy
prone
expired
dimension
laptop
enters
bachel
lend
comcast
recommending
kroger
paramount
cuba
##ifiable
##anon
expands
pant
jerusal
augmented
guards
tumor
automaker
jury
tiger
lesions
nelson
dilem
adaptive
fs
shopify
uphol
invite
creators
hudson
biopharma
reconciliations
uneven
sul
bancorp
lingering
plaint
preparations
municipalities
resiliency
##oka
anchor
backup
mediterr
aur
erdogan
sof
palestinians
sput
##mingham
attracting
satellites
chelsea
measles
boycott
boats
locals
219
enemy
430
exhausted
##reen
##odo
##aser
227
baltim
standpoint
nh
##doc
ais
confirming
##iba
223
##iley
233
##tery
torture
pink
##arket
blank
229
revision
devastated
cave
tale
236
pfe
alignment
reproductive
glasgow
pentagon
scalable
repurp
interconn
terminals
##term
deforestation
##ciences
birmingham
clearer
tribute
performers
fitz
triggering
pero
baltimore
vet
216
corporates
socioeconomic
dock
concentrations
administrator
##fish
sanction
commissions
prepaid
forming
niche
ht
analysed
tenure
asx
glax
raymond
##astian
circulation
neighbours
bom
espn
##isha
yorkers
collaborating
semiconductors
nonprofits
cgd
gel
vigilant
##ello
cheng
aber
correctly
analog
dissem
motivation
aapl
volksw
smarter
respected
meme
##xp
eli
holy
vitamin
jerusalem
advertisers
yard
##lists
moz
synergies
232
practitioners
hint
€2
pepper
hawk
openly
hotspots
tuls
dere
stall
masking
tenant
aspir
mitchell
##atics
frankfurt
woes
##isations
##ceptions
reminded
portable
filt
vocal
mega
berkel
adaptation
##lings
redes
worsen
unfavor
impairments
closes
starmer
bottlenecks
##71
politician
pse
exposures
defines
cypr
demographics
exemptions
shy
cigar
heath
uniqu
##forward
mcl
##onavirus
accusing
realised
diplomats
rogers
plaintiff
onshore
maternal
##alia
plain
highway
garner
spear
255
camero
##lobal
##ihad
cyclists
hugely
##ocard
p0
##frame
nickel
fierce
##stad
adher
overweight
influencers
rah
bou
rbd
sends
horiz
anders
randomised
praise
sont
voy
##iman
spill
strive
depot
##sterdam
clinically
linear
cet
##ecca
grey
steal
automobile
incon
competitiveness
unfor
kiss
roth
rdquo
##interest
kazakh
ine
##ande
flowing
holistic
inconsist
##etry
##inder
debates
impeachment
confed
wrap
alleviate
zuckerberg
patrol
towers
##uman
metab
berkeley
##anean
##uri
##videoc
##fold
updating
congrat
cheese
hemp
marijuana
fisheries
troubled
##core
payables
elective
prepares
##ensively
instability
regarded
sna
##وا
intensified
stadiums
beth
colored
226
trademarks
##rc
##erte
facilitating
refresh
##uled
amsterdam
egg
explor
viability
douglas
jav
brush
##making
##etical
convey
##imbab
predictable
##archy
##orship
interruption
successor
##attered
concentrate
shirt
lamb
pessimistic
redemption
promotional
outright
##eze
populated
stuffy
tolerance
##fection
capped
reckoning
nap
poison
grief
insiders
broadway
otc
##bra
##amos
flare
sage
##teen
seatbelt
disinfectant
bac
permian
sheer
##sson
revealing
juan
footwear
quo
##imbabwe
peoples
schm
thick
cop26
prioritizing
vid
nonessential
filtration
##assed
waited
merchant
referendum
constrained
metre
sentenced
##rador
433
##hao
horror
cambodia
nail
delo
encl
##anny
religion
cameroon
rever
repatri
entirety
burns
forthcoming
mohammed
##izu
undertakes
threw
volkswagen
ballo
390
withdrawn
##omprom
za
##exist
oscar
##adox1
##89
barry
anticipation
fragmented
1m
disadvantaged
##cience
djia
tc
yan
precautionary
spell
##ype
pir
chef
##rup
bears
envision
249
thermometer
coping
guns
inquiries
occasions
overcrow
##eda
hesitant
inception
condemned
hughes
##hd
combines
##ockey
thromb
fortunate
divor
italia
taxable
zimbabwe
pag
gambling
##rams
newer
lesser
emailed
feasible
edu
accelerator
longstanding
frameworks
casinos
##aho
replied
amidst
academics
brilliant
luf
lm
pued
##function
##ollo
##vency
bleak
domestically
precedent
bere
worlds
mastercard
troubles
unrealized
mv
realities
##dale
abnorm
lomb
nim
subt
mitigating
##week
##avi
239
talented
dermat
##eh
barrett
farmer
sleeping
desktop
communicating
briefings
unavail
attacking
renaissance
877
upholstered
pitches
mccarthy
pensions
##urned
285
missions
swabs
qanon
staffers
himss
microsc
undertaking
foundations
petrochemical
mediterranean
hurting
chadox1
globaldata
investigational
borne
firefight
decree
##mare
##aments
unsafe
loaded
shippers
gentle
viewer
individually
weights
##arious
shocked
midwest
jar
fidel
changer
243
##after
##lieb
refriger
philosophy
ion
craw
compliant
##leton
##rose
wrest
333
theatres
sinuses
trill
vibr
cher
sulf
##kes
thompson
enforcing
invaluable
##ansa
membr
conglomerate
##iary
##atus
224
honestly
hailing
directions
420
simulation
peters
##يل
##ovac
molecule
multic
tablets
lynch
streamline
deduct
salons
existed
##geries
sang
andrea
##yth
##gie
##icester
intimid
searches
deloitte
suited
253
journeys
##ilever
centuries
noteworthy
explicitly
sq
immunogenicity
indirectly
stell
courage
crunchbase
ripp
scoring
lethal
muted
##esse
adhere
не
investigator
expiration
221
##actic
allocate
aden
curric
##aman
compensate
muc
##oca
##ichannel
enrich
campuses
plung
apartments
warp
papad
##haran
ranges
ingredient
quantities
monica
biologics
incisive
##ophob
worship
skeptical
iter
##oku
tulsa
rover
schooling
portray
measurements
dp
rib
##41
##oup
tasked
exploitation
##awk
legendary
allerg
psychology
congreg
##breaking
nous
exacting
wheels
weakening
attributes
blanket
schw
modular
vacu
##ajo
replicate
liked
consultations
consisting
uci
turnout
mammoth
coatings
sich
stewart
273
lineup
characterized
nonporous
fitch
projection
за
essentials
gottlieb
herald
clarify
19th
determin
advancement
fm
##oria
##ington
youn
attackers
##greens
renters
bailey
leicester
puerto
##eton
backb
contrad
##dings
##arms
franklin
##cha
thriving
cytokine
##immune
ninth
propaganda
1934
recovers
##aneous
christine
ryanair
chry
costco
slip
laptops
forgotten
##tc
attorneys
negotiated
walensky
gan
capitalized
inspiring
belgian
rico
retal
247
unilever
hourly
265
preview
insurer
brady
continually
pleather
widening
pitts
##ungen
layers
cosmetics
pronounced
##cut
switched
chad
deficits
invisible
surgeries
helm
regimen
##stat
staged
##aping
libor
albert
recognizes
paypal
semester
eq
##ور
charlie
blockb
zinc
keys
248
aram
currentvideoc
##erner
currentvideocollection
inact
pest
##avan
denial
##stated
parade
noninterest
parker
affirmed
salud
eggs
##wid
als
##imentary
commem
electro
annex
reed
##tha
anticipating
nicholas
##repres
238
siem
ronald
##enko
##omon
appropriately
withdrew
##ainable
ree
##anco
reservations
rehabilitation
herm
russians
exercises
compounded
lamp
carter
masked
script
ignoring
##mex
proposes
460
positives
romania
macau
prescribed
architects
clip
##sha
##ucci
##tingu
stockpile
fost
tol
phrase
unlawful
pere
pandemia
exporters
uma
unrel
##content
hepatitis
extingu
tricky
##oping
signaling
civic
loads
galax
geoff
nz
##alone
strained
pert
##appropri
frontier
##note
implies
emily
awaited
wf
grain
consumed
excitement
wright
imbal
sut
fung
margar
lov
sweep
chaotic
publishers
accr
joel
##uki
jpy
##lete
checkout
staples
##tag
gob
invo
scams
cryptocurrencies
stagn
amd
averaging
bridges
##thansa
huang
iag
packaged
emma
jabs
genomic
stigma
##اب
emerges
assistants
finals
##ayernews
rooted
realty
flagged
datalayernews
upended
myst
##inqu
thrilled
bent
straightforward
henderson
cec
cpi
unite
instrumental
squeeze
fract
bofa
garcia
bil
wisdom
feasibility
font
creator
##via
##ру
shutter
الس
webinars
apt
##reated
##iravir
filming
discounted
inherently
reassured
liz
cancers
homelessness
##mal
curbside
dhabi
##arnished
reclass
accidents
##irts
boarding
scienced
##asa
wiped
endless
floods
informing
insulin
proph
brett
cultures
minded
unvarnished
tops
refined
unfavorable
##ulum
dawn
##iu
seating
##bach
##igm
##2021
pledges
##arked
rc
referral
reacted
ambulance
gd
belo
spacecraft
mmb
##kok
cole
chrome
stressful
evictions
dl
recirc
receipts
incentiv
##bin
##orns
rhin
stir
258
designation
entrance
##tz
##unting
centr
hypertension
##oce
blink
hearings
physics
richest
##fx
flew
##arta
rohing
conversational
bulg
bone
mayo
0001
##sch
polio
lufthansa
1918
severance
minimise
accountants
الى
bargaining
stabilize
ghost
rape
intake
##kt
##100
workflows
nightmare
2m
mck
coaching
interpreted
elli
flowers
heter
cac
gonz
compat
resuming
textile
motorc
234
fraudulent
##isi
grind
legs
reinforce
heal
organize
singing
danish
comorbidities
##yard
##md
##antes
259
##othy
ра
nets
contingency
undoc
##awi
castle
242
holmes
##etz
cyberattacks
##td
disappeared
hatch
cyn
suppression
walgreens
suggestion
440
cheer
gamble
preceding
occupational
consulate
dataset
raz
clots
pseud
immunisation
cafe
##olds
318
257
screened
disconnect
##abit
dedication
jans
unpro
samuel
gallery
bam
##uh
mh
##lee
##emie
technically
walter
affordability
verdict
##quit
declaring
hse
midday
jum
hein
268
emea
engl
##acional
forbes
##usc
newest
2021google
transmit
##izumab
justified
transformative
julian
uniquely
edin
outsourcing
munich
literacy
vu
capacities
cass
illum
##anne
##ieu
campaigning
nast
##jud
withstand
missile
775
hert
##وم
bahrain
welcoming
tuition
##aks
overhead
discusses
turb
pix
##children
auss
##acular
topping
18th
##itar
gpi
vic
##ignt
heels
slim
252
##agger
impaired
arthritis
lombard
1b
mong
yam
##icia
marco
ips
preserving
executing
ema
412
##يا
##otypes
yoga
analyse
307
normality
lg
395
fulfil
##city
##otes
##embre
trac
##rated
##42
leaked
pept
infusion
epa
sciencedaily
intu
hondur
expose
312
lobbying
hospitalisation
fighters
sacrifice
papadatos
saharan
contentious
vacuum
267
athlete
bachelor
jc
tok
ida
315
amer
yards
raf
explored
foregoing
resolutions
hunter
shaw
taxi
##aukee
305
1989
##encer
##estop
299
populist
db
wechat
##mers
seal
violated
gem
##oft
regret
activated
fals
merr
##anz
concerts
##ак
confused
385
umb
treasuries
buffer
drought
victorian
##alg
31st
gmbh
neurological
266
morbid
contributes
prevailing
indebtedness
beg
vienna
283
auditors
bedroom
tapering
whistle
pile
до
sued
duch
travelled
384
tears
##stre
forbear
assure
keith
poster
immunoc
fingers
snacks
tragic
##try
##rt
unequ
cohorts
##mus
transformations
##waukee
percentages
ete
exponential
hier
infant
480
punish
cels
decentralized
##rad
cauc
oppose
multif
cautiously
endemic
sequences
burnout
luis
rohingya
##rition
##amo
ideally
##ив
##thal
bra
ordin
centralized
playerinstance
##ctic
pushes
robinhood
disast
justices
congo
leaf
loneliness
ya
prosecution
cyt
milwaukee
fiat
##kind
footer
chemotherapy
defendants
trillions
##ourg
shocking
youngest
playbook
snee
##rophy
##prop
##iffe
fuj
##nut
subd
##hran
3rd
mend
varies
disastrous
ist
##ilia
fueling
dennis
##urry
twist
responsive
об
##hub
browse
averages
##dated
battleground
flatten
interoper
presses
environmentally
526
telesc
disrupting
embarr
tand
##86
mixing
evacuation
##aways
witnesses
foc
##otal
immers
halting
hrw
sovereignt
horm
nue
pittsburgh
##cies
myocard
translated
##1000
incur
frustrating
mish
beir
libr
pave
254
britons
initiate
exhaustive
##still
specify
ridicul
##chez
inequities
##inges
workflow
##afts
tp
##ioned
lique
stephanie
upfront
teammates
diarr
quarantining
televised
slammed
haiti
enquir
262
##iji
pullback
kol
forests
1994
gamestop
pedest
contractor
councils
sequential
payouts
forecasted
020
##tn
##onies
helen
interestingly
enduring
mour
marie
birx
surrounded
buyback
269
syndic
newspapers
##idades
amen
intimate
restoration
264
appearances
pierre
pillar
##sk
trucking
244
funny
correspondent
juice
repurchases
restored
visitor
expressly
recalls
martine
continuation
sovereignty
competitions
supplying
challenger
tape
parcel
sara
##test
ferg
##payer
lined
acre
##olved
787
refinancing
##amble
titan
cem
##vance
##erty
desired
digest
gardens
compos
917
refiners
ravaged
bitter
corners
lacked
kazakhstan
##chool
reply
251
261
teenagers
disappointment
amn
passive
surgeon
bennett
kish
##opoly
plag
bubbles
opponent
fidelity
celsius
lut
##yang
validated
a3
clot
patience
consume
boast
equip
impressed
dwind
colors
vas
metav
metall
voiced
mounted
catering
immunocomprom
stu
bach
sons
vat
##itated
279
##corp
fca
##opes
##00m
loose
470
wag
##nj
ceiling
rear
taxpayer
promotes
bangkok
paralymp
##inum
acknowledging
cocoa
yale
ans
meghan
shorting
arrives
unveil
login
hect
ngo
refusal
415
##start
modes
263
renown
deliberately
creek
lasted
950
323
marketers
overshad
vect
assays
underpin
selective
##ordash
335
meadows
apnews
nightcl
bacterial
breadth
##erie
pradesh
committing
ritual
suspects
quietly
earthquake
##isph
procl
setback
reinforced
contra
argentine
jimmy
lakh
##ifier
indians
tec
##lock
##arat
easyjet
fuelled
##etal
colin
355
weddings
sanchez
roster
pumps
noi
segreg
thirty
helicopter
##ocean
wastewater
databases
cull
##dh
sixt
nerve
241
opioid
edinburgh
remedi
maid
insol
1950
##aha
##shine
casting
dissent
pav
##fare
forgiveness
flavors
##inence
marvel
catherine
271
dried
restated
unwilling
tehran
pars
##ovo
369
evaluates
##mt
303
sanitize
commercially
##79
mediated
steering
##aca
donating
slides
europeans
##px
274
chop
imprison
refineries
token
##racted
astronauts
unavailable
##ologic
burger
legitim
recreational
##acht
statue
##kk
loves
europa
strategically
dismant
beirut
boots
greenback
neutralising
##antas
queue
hors
##qual
outages
289
killings
inhibitors
innoc
halls
lagging
underserved
regain
crashed
mw
finn
##ango
##eof
standstill
consistency
lowe
licence
prefecture
firing
ст
##osmith
295
extraction
277
serbia
##atters
747
##kline
disl
deck
501
exceeds
beloved
##urb
formulation
##justed
platinum
azar
##39
£m
overly
dosing
redfield
maturities
##eel
##wer
swings
dancing
spraw
commenting
425
##ervice
immunology
passionate
insists
typeof
bernard
zhao
scrapped
##uter
rheumat
anecd
bros
276
ipos
##jani
reopenings
288
##valued
distributor
##да
combinations
defaults
##rxiv
##31
alp
seize
voluntarily
neglig
boot
weekends
306
telegraph
opera
recruited
##kan
sta
differential
slavery
guiding
bmw
seas
brien
346
amplified
supervisory
gifts
mmbtu
##osmithkline
ral
revival
comprise
##irable
seasonally
junk
vpn
statistically
happiness
witnessing
bypass
owning
ebay
financed
gren
dressed
saliva
dispers
succeeded
obstructing
doordash
logged
reimp
confusing
overseeing
fog
inaccurate
sf
##washing
##ikh
##lick
medrxiv
smallest
apar
gaz
denom
sinovac
favourable
manus
regression
gowns
لل
directive
processors
fairness
protesting
identical
quantity
forbearance
hath
##affir
383
verge
inappropri
reyn
##essa
petrol
##nn
hailed
oversees
owed
vuel
gratitude
1016
prevents
periph
nico
busiest
890
reeling
720
##idal
1992
constell
treasurer
glaxosmithkline
accred
requesting
gastro
adp
309
distressed
##width
6m
weary
immunocompromised
##abad
healing
397
##36
surviving
appreciated
lump
modifications
standalone
tripled
ghe
dg
##ettes
##blue
administering
siemens
##long
outline
##nell
##value
recipe
nab
sands
##ayan
##iments
nymex
federally
reaffir
mobilepinned
inspector
mobilepinnedview
##lining
##fir
productions
toys
cuban
5bn
dijo
##aws
284
##arios
repub
##roads
##ammy
daughters
omnichannel
nao
##ран
fright
nominees
reelection
lc
outdated
rapport
unst
troubling
slot
waning
anos
outperformance
stip
00pm
clashes
metaverse
myri
canceling
rentals
vogue
alli
graphics
nons
successive
344
accomplished
gateway
cans
##into
obsc
separat
disciplined
sputnik
liquef
newsroom
281
gly
respects
##ivos
compress
mete
510
favored
rip
majors
riv
326
560
moln
ditch
##eiro
ias
zoo
€5
chron
##osph
musicians
mirr
broadcasting
kyr
timeframe
ishares
##email
billy
masters
mcd
dysfunction
##نا
ngu
со
montana
instructed
286
399
wallace
croat
bhar
alien
renowned
shine
complimentary
pumm
reception
unfortunate
kash
##enson
fla
282
conditional
272
bard
##mother
sunshine
cooperate
punishment
undermining
529
columnist
tube
stupid
##ibo
mrs
martinez
royalties
katie
epidemiologists
reid
bmo
churn
globalization
410
kos
weaken
endpoints
278
الح
eradic
biomark
morocco
activation
reopens
delegates
constitutes
incorporating
synthesis
lb
##gro
##ears
atlas
yor
hearts
##lifting
##global
pond
##anca
313
sequentially
rushing
sha
commander
shrimp
##vak
modify
vermont
bof
edwards
esports
quantify
brunt
tissues
commenced
purple
908
grandpar
spectacular
emphasize
condemn
styles
##78
##urally
superc
enzyme
burdens
##ле
##ני
timid
estimating
earners
324
sensible
893
prioritized
galaxy
dhs
358
##ать
##iane
##هم
abbvie
relevance
influences
arbitrary
tigr
reint
##orted
smile
distill
lifts
##lington
rr
396
slew
fantasy
sier
##agan
destruct
cafeter
peaks
zel
##mn
298
turner
##steps
kas
##urd
knight
smash
mason
lightning
##aval
bounced
tat
sealed
standardized
amortisation
capturing
777
##armed
##vention
abundance
yellen
seism
retaining
livestock
##igious
estados
vang
repayments
dax
ratt
308
opting
painting
bosses
405
killer
grande
sufficiently
edgar
##zes
##usable
spite
spdr
exemp
##uthor
adolescent
tant
##inga
302
expectancy
watches
cnnnext
femin
firefighters
##aday
520
jill
##orth
##identified
slugg
##rical
fined
314
overlooked
suz
evs
hostile
660
deprived
hillary
replication
klein
xu
##eseen
redeem
##ishop
##icked
shortened
harvey
communicated
##iguez
bryan
##umented
timelines
glim
ghebre
allied
hampshire
appliances
undocumented
lanes
cous
specter
barring
£4
##ck
contamination
hampered
restoring
jacobs
349
##center
subway
blend
myriad
manuel
setup
kirk
inflic
painted
routines
zw
##see
expo
autor
vik
##enzie
festivals
##ancers
##onews
entren
rebal
prolif
exacerbate
##etric
clay
287
judici
lastly
11th
inclus
spotted
adhes
9m
paises
precip
##ipper
1a
poul
totals
reservo
assembled
rm
##ifiers
pleaded
blair
premiere
assisting
seeds
biosciences
dirty
squeez
molnup
##lev
neuros
stuart
ucl
##iah
terminated
##ught
curriculum
pang
##arial
istan
292
ineffective
adherence
spencer
293
1960s
purely
disagree
##hift
##aughter
diplomat
julia
seamlessly
30th
myers
pinned
levy
##ulates
##duct
secular
builders
molnupiravir
whis
##ammad
furloughs
neo
thereafter
##wi
judiciary
itm
cruel
detecting
unexpectedly
bernstein
underperformed
##ifty
drugmakers
destro
suprem
relaxing
gregory
lloyd
##father
##idi
temple
digitization
dragged
yearly
setbacks
exhibits
mog
##ardi
undergrad
336
durante
kuwa
cyprus
beast
specim
converting
tn
tl
vor
neon
570
##nob
noncont
404
disputed
precarious
jumps
stakeholder
mgm
imagined
istanbul
##eres
heights
midstream
tapped
nordic
reconstr
##iral
dej
infring
resemb
videocon
hoard
tanz
429
wildfire
unusually
##ahl
academia
fintechs
##isphere
lis
ppt
piling
rodriguez
resisted
328
filmed
##ahan
apollo
methane
##yesus
407
orph
skip
wearable
relaxation
mario
erect
conso
##iao
blending
webb
biometric
endeav
casey
الق
keller
mph
swaps
suspicious
julie
covenant
##marked
345
##cos
##opy
##aches
speculative
grapple
ineos
hij
cargoes
##ourl
debit
hammered
wyoming
rescheduled
tunisia
##38
rhinovirus
xx
immunos
##chron
##ahr
anthem
iqr
##itas
arn
475
nominal
narr
occupation
quotes
ghebreyesus
spends
invests
boasts
weighs
qantas
riy
aberde
joke
1273
admits
1980
hathaway
4th
##jee
12th
radiation
reassure
##orse
myel
losers
wallet
sue
368
traumatic
##cale
##orously
perd
autoimmune
##chan
##walk
ao
directing
savvy
khal
oust
wals
##jj
##arde
bidding
tsun
327
essence
nigerian
ki
wend
portra
##bien
nonwovens
##col
goodby
recipient
hew
runner
venice
complementary
beneficiary
taked
##angel
principally
intrig
hood
##adores
megan
337
telescope
fights
alternate
underscored
irrespons
##ци
##anas
collaborators
indonesian
existential
referenced
successes
johannes
##guards
erupted
sme
409
439
feeds
fared
overwhelmingly
blockbuster
chal
nationalism
lagged
zurich
bass
isa
20s
291
inhabit
modules
530
nova
borrowed
thoroughly
zip
##owitz
soci
emergent
connor
insisting
diminished
382
crashes
ls
harper
intervene
##soever
392
999
fitting
arranged
hook
toughest
nt
serop
collar
constructed
datasets
assesses
scramble
cine
##ixon
africans
##يد
sweat
gavi
instituted
clarke
customary
elementary
disinfection
wrapped
outpatient
headcount
chambers
##storm
genetics
296
coordinating
constructive
scept
331
jewelry
sic
outlines
mahar
clues
austerity
##sett
plac
ngos
uploads
pressured
ashley
destructive
inspections
##query
restr
renault
curtailed
needle
honda
##fu
##atrics
rebuilding
libraries
630
differentiated
339
321
pwc
constellation
nhl
negotiation
analyzes
joshua
##amas
secondly
applaud
industrials
navigation
noncontrolling
eis
stere
paradigm
unint
subjected
##ographic
bankruptcies
gymn
fergus
caselo
311
sanjay
adjacent
signatures
tfg
##athers
unrelated
##eme
loading
pleasure
denominated
ict
merced
ets
427
yielding
flooded
hm
tru
devoted
bandwidth
kud
peng
chil
deserves
veterinary
revolutionary
genomics
##ав
##imo
credited
glasses
margaret
##ор
##oken
unmet
##iar
contend
911
interruptions
cx
envelop
noble
##onext
319
concession
##°c
unworthy
canal
interd
##ensen
estimation
540
qualification
lawmaker
offsetting
bolstered
brave
352
##hani
##ships
sake
merit
niel
endured
347
davidson
625
nou
schne
takeout
reportocean
304
janet
narendra
aesth
workout
reactive
perceptions
seafoods
##nie
##200
rewr
rampant
penney
bargain
resumes
mayors
nearing
322
rallying
underscores
membrane
commence
pref
madison
observatory
luke
##ioni
##terior
thoughtful
crushed
amnesty
vanguard
shopper
buried
prag
rebel
frost
##idade
373
williamson
от
timothy
367
sounded
kyle
uphe
establishments
##iciencies
booth
endure
stockholm
##gage
activism
unsust
gluc
fernandez
atom
northwestern
297
transported
illegally
reconsider
invitation
202007
plunging
nk
##rosis
og
##vor
1843
##urances
dei
floors
ov
researching
blaming
devastation
skepticism
oakland
cla
tao
##wing
skew
searched
shrank
orientation
elaborate
regimes
371
convinc
aramco
paras
widened
ges
lions
##acom
packing
naive
nanop
abstract
relentless
zy
##code
registry
##copy
##tour
nashville
xl
proves
leased
294
tsla
encryption
ink
##entre
awful
vastly
liberties
inaugural
nazi
620
##obil
methodologies
duchess
hereof
nearest
northeastern
harrison
reapp
belonging
traced
##bage
##gev
jews
##feed
outperforming
1964
##artime
markers
##station
acknowledges
evacuated
про
ellis
elliott
myster
squawk
hurdle
##efined
tambien
flush
646
bathroom
plea
606
ridge
sene
scramb
calculating
refinance
penny
defeated
tolerated
inauguration
ralph
lacks
coding
notices
##iani
idaho
tenet
podium
hacking
##olar
##agne
metast
xen
persever
contemplated
cros
gearing
jugg
##sm
##01
simplify
encrypt
navalny
ef
supplements
adventure
computational
novak
oat
£10
##iri
roe
risking
cuando
dignity
wc
##ulsion
icis
##his
##bery
psaki
azerbaijani
##igated
##ople
artic
duo
derek
practicing
denies
grandmother
liberals
unfolding
##rh
##download
flower
misconduct
##aque
stom
ethanol
jquery
yok
boosts
##change
356
ticked
ours
empres
perry
module
sandwich
rotation
##ashtra
exercised
nun
ingen
abol
usability
afterwards
steer
sina
##gt
disburs
##ения
entrants
extensions
pursued
respirators
pie
utt
filmm
fusion
lent
##ateur
compact
jake
##emies
highsnob
##add
adhan
prix
316
richer
xbox
ism
intang
preserv
humid
780
cubic
unsp
noah
intervals
deadlines
deliberate
nost
indul
steph
derech
reversing
adhanom
scrutin
velonews
##abs
architectural
tapping
occasionally
honduras
highsnobiety
jair
##inas
massively
##uvant
advocating
338
viewerdownload
maharashtra
unidentified
##iza
##onde
activate
##orne
aa
##dal
beings
abilities
socialist
shedding
chrys
lasts
tx
##62
reusable
granting
peac
348
speeches
dragon
adjuvant
defender
hedges
triumph
poultry
bod
hefty
##arten
injected
walsh
##uest
unse
repairs
practically
640
rumors
ej
iata
##lean
490
paperwork
salon
responsibly
arthur
secrets
##ifa
screenings
hertz
glimp
workshops
bee
##сти
antibiotic
aerosol
##redit
aided
fifty
hotspot
aberdeen
glimpse
violate
##ichi
goodbye
digitalization
behaviours
queries
sidelines
deepest
marginalized
##ocking
431
answering
##ycles
theatrical
appealed
steril
rationale
console
##orton
329
fleeing
fronts
mism
##occ
372
740
cep
435
ecological
##mund
##jones
##rection
##itton
behave
succession
laundering
laps
null
##arro
##ivate
1991
reminds
loun
##prints
332
exceptionally
stockpiles
reluctance
grandparents
vouch
realization
interrupted
insert
diab
interoperability
sluggish
yo
loses
##lett
bis
msft
fleets
maxwell
##gio
##oro
##ibb
vincent
##chr
nationalist
sentences
consisted
elder
mystery
mercedes
kicks
shi
democracies
343
slovak
honeywell
##bird
expires
##2c
transitioning
grub
374
shirts
kenneth
357
examines
alger
costing
succ
footing
unsur
866
rocky
reinsurance
##ocial
525
conditioning
arctic
##alez
breed
sisters
830
jihad
##tera
newborn
worldtour
possession
483
363
consolidate
borrower
postponing
exponentially
334
outer
addressable
prepay
hurricanes
summarization
lub
##vol
marketed
bracing
378
optimized
deferrals
brac
windsor
##icts
valent
nascar
emotionally
unsure
downloads
smoothly
promptly
##regular
tournaments
kings
17th
fortnight
unsustainable
cios
mouse
ri
##irth
amanda
fabrics
hig
mell
deepening
##imicro
recessions
formats
unaff
##umi
##rown
classics
utter
beck
trek
seismic
owe
nordstrom
##elsh
makeshift
855
organs
baggage
gust
warmer
persuade
sierra
remed
intraday
##amation
neur
##ressive
387
prestigious
rage
##urable
graduation
cake
inappropriate
casualty
soup
biogen
brib
antimicro
359
kabul
pam
##zman
assembling
sheriff
tampa
billing
##laimed
438
culm
ek
##castle
##cepts
chant
adidas
nextvide
##endslate
575
configobj
##videoid
understandable
banker
bien
divorce
perez
readings
borough
securely
phrases
discriminatory
janssen
anom
basics
magnetic
suv
interm
workshop
##fd
tightly
##ambia
bulls
rhyth
blake
io
subord
royce
mentally
jog
##oskel
intersection
rd
permitting
undermined
wears
scans
stresses
hockey
##case
exploded
##bas
heather
expedia
403
1984
blueprint
livestre
##ye
##itus
##ogene
identities
sometime
manuscript
intangibles
fortunes
linger
2577
keynote
680
##mans
##iots
optional
woodward
jetblue
ladies
fas
newfound
##arded
blown
ideological
reassuring
jesus
##مل
rebounding
timet
presum
equation
inches
morph
arbitr
alliances
denying
malign
bids
##ahi
hometown
##akr
affair
engag
illustration
maduro
##n1
chunk
##actory
latent
banner
testament
preventative
starring
memorand
entrepreneurship
scam
clouds
escalated
##37
streamed
allot
tooth
##bev
comed
commenc
onboarding
ferguson
cattle
580
retaliation
iraqi
terminology
tib
provisional
2020google
3150
janeiro
breakout
##imento
cyclist
##cock
arrow
jailed
##uper
remem
wp
grup
beats
rebecca
submissions
tsunami
schneider
welsh
authorizing
ehr
chau
laz
meaningfully
kuwait
chloroquine
recomb
##arez
whereby
handing
nebr
terminate
495
trademark
##abe
pete
398
##hua
proposing
dialing
unidos
vib
bullying
hires
iw
1987
sharma
accelerates
besp
nifty
stumb
infants
outwards
swan
pais
irregular
unsc
lebanese
##84
##kett
##undai
##street
kaw
##erd
##rot
withheld
composed
genoc
ought
seth
wreak
##rod
rounding
tactical
jazz
hospitalisations
amounting
##ooter
leslie
presumably
##odox
shoe
sebastian
##urgeon
billionaires
skyrocketed
osc
kishida
##non
disreg
bug
15th
luxemb
supers
steppe
tyler
thy
roose
lifes
glance
##screen
crores
1993
brazen
##ilo
cler
354
essay
disclaims
cybercriminals
pard
casc
393
tendency
richardson
inoculation
serge
770
erp
interacting
bd
corrupt
employing
swot
stein
patrons
rwanda
bands
hast
remarkably
prioritise
meh
dimensions
illustrates
orphan
territorial
hiding
##dled
esper
sizable
delinqu
##ustomed
451
triage
prototype
downturns
holland
nebraska
trap
observing
1bn
##uber
glut
gt
##feld
fearful
hyundai
crushing
wow
##ribute
projecting
randomly
##enth
peril
paired
endorsement
590
unleash
umbrell
mum
mick
wards
421
vitro
senegal
jor
##quer
crm
##bras
merge
nurt
##fig
##asaki
downgrade
##rin
checkpoints
428
inconsistent
forty
algun
photographs
turbulent
amassed
##rians
abruptly
engagements
fuk
##nia
influencing
curevac
unsurpr
augment
pipe
guter
ferry
что
##ель
toc
twins
opposing
sparking
##ieg
sanitis
stern
obrador
adequacy
366
391
##orah
levi
commute
gonzalez
sprawling
##isy
reflective
386
riots
hemisphere
##ров
##elect
sera
figuring
aggregated
vuelta
chrysler
##itate
465
##vas
apis
ibd
408
het
ldp
distrust
exagger
retirees
affirm
vesting
499
reconcil
jumbo
##nv
377
tribal
gravity
memorandum
forbid
decides
riskier
simm
341
##ersonic
675
outflows
branding
pedro
stevens
mohamed
gad
leyen
whatsoever
phe
##estinal
cracks
entert
##ных
mathematical
compatible
##erative
embarrass
##iso
themed
pillars
mozamb
immunosupp
phosph
empowered
reynolds
nint
##year
tumult
remembered
corrections
withdrawing
wyn
##apor
opener
##forces
animated
knocked
dilemma
##eri
reperc
supporter
believing
362
389
reinfection
##iones
##univers
narrowed
##minster
730
##working
##represented
cir
coating
scanning
monopoly
##comings
afor
portions
observer
bicycle
1930
shortcomings
610
irresponsible
vouchers
unsurprising
##gary
##iker
436
guterres
alf
roundup
670
psychiatric
tread
lateral
pictured
jong
vibrant
convincing
hoc
##rus
##kov
fitzg
leo
swung
passwords
constituents
##velt
scales
381
##lib
campaigners
sacrifices
hawkish
notify
kor
reits
lighth
sizing
looms
surpassing
overturn
nielsen
##uo
osha
##gold
##atry
512
contributors
corrected
telecoms
bmj
##arrows
alv
##ementioned
##auss
394
515
tankers
aforementioned
deng
##lem
760
fom
£6
##aby
finalized
iconarrows
croatia
##invest
facto
ridiculous
##imeter
361
deprivation
deteriorating
ards
davies
pumping
overshadowed
lul
numer
##auer
circles
facilitated
wounded
peripheral
dug
scour
stats
dividing
821
2000s
dd
cerv
##table
deepen
379
fibre
disparity
kohl
jewell
tense
domains
##enos
handles
learners
##zzi
oxide
gases
##enas
pew
degr
technicians
##ugging
trough
contested
##achi
prescriptions
13th
##imon
##atec
payers
silva
injections
void
376
simpler
intra
##isite
sailing
parte
445
inoculated
hogan
##anson
##elles
reneg
luxembourg
hfs
png
tipping
##hall
basel
nominations
eats
truckers
pediatrics
incomplete
nitrogen
uttar
remitt
simulations
388
validate
takeda
ani
hottest
dowjones
631
875
vials
##ти
trash
raft
benzinga
chats
unused
formatting
mens
fuller
lodging
##universal
pog
##gov
##inant
presently
curated
replen
tanzania
##alt
##ayed
scare
commencement
##nat
##elp
chasing
notre
crist
recreation
recap
snack
worthy
corridor
proliferation
pens
chim
deborah
melan
takeaways
enhancement
pga
##ende
stefan
##ivel
laure
upheaval
##itic
##omer
daunting
ern
milder
hod
yank
##vasive
curbing
1101
accustomed
actu
##azione
labeled
riyadh
pandemie
##rosion
processor
optimizing
reckless
bryant
pegged
repercuss
taper
##produc
##isb
tequ
4m
fruits
calgary
##uckland
aerial
prohibit
svp
ensured
##uccess
spun
communal
##space
censorship
mim
##mad
marl
personnes
stewards
cd4
##bled
uncont
assurances
424
amplify
confronting
stub
materialize
muj
tornado
mats
rif
claus
immuno
liquids
convened
nightclubs
vall
##oding
cooperative
extrad
auckland
drain
glenn
installations
yorkshire
sino
ipad
breached
flawed
leur
342
clause
apprent
bother
singles
myocarditis
blinken
subdued
во
##32
##andro
foodservice
sans
021
correlated
grassro
extinguishment
tt
veto
publ
legislators
##luent
rethinking
roosevelt
coors
jnj
vatic
fellows
vacancies
brasil
adrian
reinvest
await
shower
deleted
flatt
smugg
hallow
brig
stomach
daly
##eccion
portugues
genuinely
retrospect
rochelle
##withstanding
820
disadvantage
seafoodsource
slots
parc
carc
receptors
f1
sober
rook
densely
residual
ageing
aspx
deteriorated
abdul
frenz
484
harmon
buoyed
hamper
bert
triggers
nicole
notwithstanding
initiation
##hea
##jor
diy
greener
panama
alleging
tribun
chun
scul
progressed
ivan
vatican
micron
##afting
virology
aurora
##iago
##opping
amgen
workforces
##ml
offense
80s
complain
pioneering
incompet
##idt
massac
manageable
860
grandfather
prayers
##itinib
checklists
ez
##mouth
toss
progn
oilfield
innings
##كن
whites
videx
syndicated
##gent
449
bnp
##gene
iso
newsw
skies
455
plagued
##dling
##gins
448
ches
##stitution
bharat
ole
wework
414
cowen
##bio
##gone
thesis
##opic
##quest
vm
##olan
##unct
noon
smok
awk
giul
kyiv
mald
##itr
responds
tigray
nintendo
displaying
cinc
##ounding
slashing
persists
crispr
delegation
confronted
cin
unesco
##ologically
21e
probation
lonely
brewing
537
murd
interconnected
tequila
nairo
##itures
trio
overtime
flown
value2
url
puzzle
safeguards
translates
shepher
tig
sums
influencer
heine
aument
geoffrey
##alloc
colony
miracle
nbcuniversal
sturgeon
##adan
##ampton
browsing
backbone
boj
diff
contingencies
posture
halloween
70s
jung
##akis
elites
402
406
compassionate
ming
##ste
patt
diagnoses
interfere
friedman
##erick
germans
585
restarting
cathay
ugly
tres
unman
evade
installing
intraven
deflation
مع
9877
##76
profiled
الف
mundo
lug
travis
reassess
kurd
tin
ин
##asse
hahn
manila
bayer
hammer
##icable
playoff
##company
##ре
neill
insult
audits
lex
muscul
##cts
complying
pean
modification
hedged
horrible
teenager
scarcity
whistlebl
dine
##eded
##ivities
austrian
bored
virologist
inconven
grassroots
jv
##мо
elle
##times
pooled
##ود
boon
##elong
gptvalue
freezing
##olidated
neph
logical
bjp
falsely
##ethylene
envoy
lum
bru
absurd
santander
inexp
titel
whitmer
meteor
yoshi
rech
flavor
dilution
wondered
fn
##arin
##aching
kicking
##estre
plaus
blackstone
males
neutralization
dong
dwell
minimizing
nanopart
abusive
flurry
dispens
fragmentation
repercussions
reap
parental
##coronavirus
uncovered
vand
solved
hazards
alexandra
akin
##icht
nguyen
genocide
442
superint
melinda
permanente
illustrate
kp
quinn
upgrading
##ridge
##mun
14th
##atorial
##piece
bleeding
perpetual
##arb
straw
brakes
logging
friendship
downloaded
tuned
gallon
##andemic
excel
liber
mineralization
cms
€4
##kom
##rapping
patric
carrie
authorisation
faa
adenovirus
##oir
aired
figured
422
wildly
scrub
melissa
krish
administrations
##ycl
shun
teamed
meltdown
fade
ping
##anticip
##efa
2q20
inhabitants
gins
disgr
idc
caix
obstacle
francois
sark
x1000
##arse
perf
differentiate
standoff
pathology
strapped
hype
25th
##oskeletal
repaid
loving
859
overdue
philippine
whitney
dass
prejud
kun
weath
##ivable
##class
840
omar
pou
تم
desks
potter
encount
##mr
heated
419
nicolas
quadr
##anticipated
panc
rust
insured
rounded
encounters
prox
unanticipated
##endent
30pm
refrain
garment
hovering
destroying
nia
syring
exported
##pox
exporter
morbidity
antimicrobial
approving
greene
481
redesign
accrual
##irt
reps
002
tesco
mozambique
555
extracted
lud
##iki
fireworks
pipes
louisville
philippe
##pid
##ел
vint
shak
antig
liquefied
##ecure
##atched
della
sot
restructure
blaz
malaysian
bulgaria
vectors
lakes
##aran
symbolic
jakarta
426
unforeseen
cun
prayer
sensing
googl
canber
505
rus
##usions
wein
##ounded
eid
uri
usda
rightly
etre
584
767
psychologist
##uay
desde
eleven
nicola
oval
pend
retr
derby
hannah
commuting
delicate
innovators
escalate
atmosph
muk
pcs
checkpoint
tumors
bronx
spatial
musculoskeletal
##atable
##utt
wayne
sind
##went
##wana
##arma
unsuccess
##theid
dictators
bespoke
##now
##ин
sev
upwards
moneyist
deadliest
alcoholic
flaws
atmospheric
##pack
##orus
playoffs
propel
454
oceans
elephants
inactivated
gobier
dread
posing
privat
rhode
exempl
##راي
16th
kills
hypothesis
bite
spearhead
baking
moss
tj
##elman
imply
yours
485
apartheid
lighter
##lia
tranche
##ourse
streamlined
modestly
rays
##cz
wasted
##afone
jared
##season
sinai
##din
usps
evangel
##ulemon
taskforce
linda
cafeterias
nj
##amine
alexa
1532
canberra
##ski
thru
spiritual
fascinating
##bek
432
endangered
escaped
ration
preventable
photography
portuguese
taps
cautions
titelmedia
bast
##usa
transitions
weekday
resur
herbert
candy
villa
2bn
commentators
discovering
unreason
##hare
##iente
customization
sliding
cancelling
curt
thankfully
jewellery
iphones
trophy
thu
##acious
fry
redirect
##this
unim
estr
503
detailing
allocations
exploiting
survivor
vander
##94
distinction
msc
crying
judgments
tia
##amous
weakest
suburb
withholding
emmy
uncle
broaden
##edes
##acity
##hed
insurrection
418
athens
neural
##plan
diagnose
hashtag
fitzgerald
awkward
920
lars
458
suspicion
surprises
poured
teenage
##mir
##cho
variability
occasional
siblings
anz
uncomm
443
reagents
auctions
bizar
seated
##gram
substr
413
stabilized
societe
johannesburg
heineken
##emas
##odus
dame
marketplaces
rebounds
neutrality
mitsub
1100
artistic
impart
quarterback
tanker
redundancies
eases
pare
rings
##onna
firstly
keir
educator
modernization
scrambled
roku
##اء
##pra
crem
apology
diaz
newswires
##ologous
annie
extensively
444
471
koch
alban
476
dumping
vodafone
hac
##rn
polyethylene
##theon
sx
467
aligncenter
##hard
##acher
businessman
##consolidated
overcrowded
eine
##ва
grie
epstein
richmond
shinzo
horizont
intuitive
rebu
penins
cohes
lululemon
inbev
slows
441
fixing
gravel
shaking
newcastle
ebitd
buffalo
##oplay
pilgrim
sz
hassan
aisle
thanked
sussex
mosque
reacting
olive
reef
fares
509
411
unauthor
transmissibility
emm
domino
##hop
clamp
descent
##appy
##opsy
terry
biometrics
outset
ideology
veloc
distinguished
nil
##ongo
strangers
danone
hindu
psychiatry
waive
cd8
478
545
laundry
##musd
metastatic
##ubmusd
simp
situ
453
tmubmusd
defenses
powerhouse
competent
todos
distraction
5th
tac
agn
qualcomm
entrepreneurial
aluminium
timetable
493
graduated
queues
##72
##anti
##omics
leuk
storing
434
ranged
steroid
necessities
azn
caroline
##emos
##ammers
##liner
810
gilbert
exodus
impactful
jails
teeth
mandating
raced
politico
transformational
cornerstone
renegoti
qe
mai
wallets
710
trailer
##tel
##abl
unwind
underwent
molson
ripple
mitsubishi
nca
treats
narrowly
lukash
##ook
##rais
radically
discoveries
pulp
fraught
sustainably
commercialize
437
050
833
nak
inbound
ecmo
mba
sanitary
textiles
umbrella
repet
423
743
aero
##oust
monster
allowances
excer
innate
oems
thwart
coher
##avia
beneath
manufactures
452
determines
neglect
imarcgroup
schwab
fcc
##ertion
502
482
880
ned
tata
realm
travels
##boe
topp
##unity
butler
infin
whoever
##ached
evil
famed
consequential
hemat
bizarre
2b
##erz
##oters
governed
convene
##innati
hiking
lund
epit
565
louise
lagos
kyi
vegetable
##utive
690
orban
hutch
recombinant
nb
او
statistic
differenti
459
thrust
privileged
ubiquit
transporting
granular
eh
468
millennium
7m
sask
yas
premiers
graphs
jerry
stockpiling
cincinnati
wrec
##istas
directives
lifec
nuest
etsy
chilbl
diane
##74
humana
##naire
infrastruct
463
egyptian
##ben
carpet
prominence
verbal
elephant
evolves
tactic
allergic
tms
onwards
kraft
##atz
westminster
speedy
trainer
freelance
furious
447
##ollah
journals
##enzo
caucus
m2
professors
ils
mentioning
nio
frail
sexually
entrenched
pell
optom
defenders
raab
sunny
packs
uefa
piper
hypersonic
kimber
tasman
peninsula
alto
columbus
unanimously
griev
##שר
dov
transf
morale
456
doubles
axis
chilblains
springs
tandem
sway
tents
ytd
##zed
suu
446
517
geared
slogan
##oppy
8m
hil
exh
combust
reconn
catalysts
kush
carr
buyout
communicable
492
791
staple
disemb
lottery
469
speeding
dishes
riley
bald
1988
lemon
hern
cites
evidenced
##ophys
airplane
vans
blacks
005
seasonality
417
472
535
duplic
aerosols
##из
ammon
lawn
rainbow
mulan
jal
pairs
##aluation
sms
distances
725
durability
jain
inclu
506
practising
depress
illustrated
assad
retiring
famously
596
pon
ре
##ieron
selecting
##building
fighter
##china
cleaned
armour
reliably
microbiology
repr
vegan
lagarde
afterward
825
tout
weibo
elevate
restarted
workloads
##ют
casa
mixt
baza
##js
discrep
lure
assists
typh
diminish
wig
oph
biases
brandon
564
empowerment
tumble
wade
misunder
safeguarding
ecoch
pilgrims
##umble
##meas
487
bradley
catalog
conceded
lukashenko
##arians
plaza
outgoing
dataobj
laden
rendered
guangzhou
nextvideourl
cany
claire
valor
authorize
controller
couns
604
livestream
hoff
##about
possess
##brand
thereto
90s
gamesbeat
870
republished
cus
lac
vix
003
##entes
chlor
annum
affluent
507
subset
float
638
drafted
ferrari
s1
assass
pem
chol
proportions
postdoc
comparatively
fifa
encrypted
specificity
mentality
bend
shack
ministerial
liberation
capsule
##ulse
qualities
latinos
##entin
mann
vein
superh
substitutes
divestitures
ecochunk
undet
oils
handwashing
despair
##infl
##asis
amit
retailing
heathrow
vague
exec
archives
rogan
stranger
htf
plos
empowers
stocked
burg
uran
960
assemble
specifications
551
prefectures
biased
27a
outlining
accommodations
gamers
hesitate
fixtures
##itos
497
diarrhea
transitory
clicking
##athetic
gucci
615
supervisor
hoy
spiking
thankful
intentionally
reorganization
nass
coronav
pivoted
##housing
monarch
specifics
rupees
##right
asean
cared
settling
то
unacc
parked
solomon
shark
fearing
464
612
ftc
harbour
immersive
ket
disposals
blended
cortez
rocks
sow
##char
sag
refract
listened
462
roundtable
dic
##sky
##berger
slaughter
argus
494
insolvency
516
flynn
overcoming
basf
rewarded
preservation
##ис
689
oman
##qr
##olia
##athed
debuted
##ometers
extraordin
##upply
##listed
xenophob
##xi
unbel
attractions
ceremonies
lenses
##aut
##fp
##inis
uphold
fertility
griffin
enclosed
##ym
filip
suffers
621
sequel
shirley
##kit
trevor
##oko
##ageo
utmost
rhythm
intub
634
##حد
harms
##isbane
intercept
maz
widen
qualifications
tenth
aspirations
clara
466
##number
##iem
stripped
advocated
stabilization
##عد
spared
abortions
proxies
undervalued
historian
486
lombardy
bing
tue
exited
drilled
534
embargo
##itudinal
cette
pigs
##ysis
498
619
casualties
vault
ifn
flout
attendants
repurchased
microbiologist
thorn
stiff
brisbane
desirable
keyboard
collaborated
593
reconcile
perpetr
meng
usb
volt
ting
##orf
winding
supposedly
sidel
hinder
lone
##itious
sto
carls
entries
745
undergraduate
€7
##uj
##iler
##ientes
##ennan
tailor
boyfriend
sacrific
rbi
intrins
reservoir
sights
tir
##fly
bntx
enthusiastic
stellar
pax
##rique
1982
rewarding
concerted
unleashed
nonsense
diana
rn
##98
ubiquitous
surr
30s
012
980
grasp
traditions
diageo
080
renal
confederate
dana
bucking
unbeliev
hamb
kj
pok
wings
##oil
meditation
glimps
jol
##pps
457
##lift
arabian
fein
underpinned
esa
overwhelm
natal
moderately
assignment
##64
salman
revital
runners
513
gouvern
##mel
sphere
##cerated
##americ
weiss
aval
508
forecasters
477
dmit
##bie
locking
logistic
shapes
pearson
wendy
evercore
473
665
palmer
765
abh
waivers
trails
##ranks
shootings
franchises
lia
orb
inviting
518
spiral
1q20
prophyl
housed
withhold
pn
##ianz
apres
618
horrific
بال
hag
clut
serial
599
tui
##во
815
grandchildren
overdose
relieve
imbalance
questionnaire
girlfriend
skyrocketing
nud
yun
##axis
subtle
571
rejo
enjoys
##ры
graves
disneyland
lauder
##يم
##icoster
##element
567
rystad
abnormal
aum
##lance
chick
##ancer
lifelong
523
pausing
##zb
chee
496
527
511
complaining
rains
##adia
الد
reservation
pts
extinction
ensuing
713
judged
pummels
6th
yum
incar
nonc
physi
489
garage
thumb
embark
cay
karl
##uchi
##version
hotline
531
submitting
rejection
hazardous
ud
##rine
##acency
infr
549
538
zhou
renovation
nimble
eman
propon
banco
sculpt
tet
ley
swelling
halfway
markos
philips
depositary
bazaar
lumber
narratives
forge
amino
midfield
simplified
repos
delight
bourla
kant
hiatus
taiwanese
unknowns
##iscipl
encompassing
dense
climbs
deployments
reimagine
notorious
gian
kot
expansions
intensify
##нои
sloven
turbulence
cite
##та
arrange
reinv
dv
triang
##oglo
refurb
trustee
malta
rigid
aggrav
urs
shim
introduces
listeners
sanctioned
unequal
##nutrition
pine
μg
caro
propelled
587
wartime
staging
702
behavioural
##py
479
duterte
rescued
evacuate
baku
##rahim
redef
647
940
orthodox
cervical
4g
victories
lightweight
735
fibers
compute
leeds
##قت
##elet
514
celebrates
hydroc
quotas
unconvention
vine
tomm
acids
starters
detrim
shoplifting
589
investigative
evolutionary
reconstruction
cables
sj
##cell
##fil
deaf
telecon
expir
medics
attain
debris
markedly
colombian
merrill
induce
60s
implicit
##balt
corticoster
rejecting
slovakia
carers
004
briefed
##ные
succumb
dew
powering
occupations
mercy
electrification
##gom
decimated
headaches
##govern
hurts
alison
##andi
servants
805
soldier
fertilizer
##thalm
##tw
##yo
605
liquor
burge
790
fulfilled
##vision
interferon
legitimacy
unreasonable
930
tories
##farm
roi
durham
h1n1
supervisors
ginsburg
##national
ano
klm
cornell
stricken
hiro
warehousing
dealerships
dumped
miguel
ccc
sket
andres
allison
705
angle
597
bolton
cyclone
exacerbating
lovely
perseverance
zambia
##по
##oso
ellen
backyard
579
garbage
belongs
maternity
tracers
вы
##tzer
##aver
foam
602
workspace
tran
retreated
builder
bair
##dong
refuses
envis
##rolled
purport
glen
tentative
shepherd
plausible
##opec
pervasive
##obiles
fent
##edral
circulated
preparatory
sinking
detrimental
##anders
##iper
655
1930s
ramifications
redistributed
understandably
navarro
718
blew
##ibas
demol
##oux
monte
##acey
##inck
divisive
990
jacksonville
neglected
aml
stretching
##committ
continents
fema
2035
midw
loosening
botswana
של
عن
##tics
inov
surch
longitudinal
563
562
athletics
nairobi
medically
504
##keeping
avert
vie
shen
trustworthy
congressman
landscap
disappro
discrete
pronoun
pole
cathedral
recal
crashing
##wen
##ondo
583
dejoy
ripped
##bud
##isans
cobalt
interstate
marker
574
crucially
1979
uncommon
toes
##strong
nascent
vacations
fostering
empt
complacency
ceram
lucas
relay
sentiments
611
fue
##wat
peaking
doj
backward
misses
judgement
ultras
##stering
brains
scammers
estan
799
##acart
females
imagination
horizontal
sided
grubhub
tuc
woke
это
accepts
669
discourage
nem
##pill
##tenham
628
hernandez
inclined
573
neighbourhoods
extraordinarily
##iatric
##fam
tumultuous
canyon
joh
carp
traveler
standardised
fy21
##osys
sheff
##tapped
gloss
dismal
nach
##loid
schl
static
carmaker
wheelch
trabaj
zar
##acar
544
cemet
##xual
cherry
715
785
ics
parenting
plaintiffs
coronavac
digitalisation
psychos
##ного
inherited
##enhagen
lig
declares
contrace
fibrosis
##antha
##isciplinary
cib
##names
##looks
558
planting
910
todo
ish
aci
judging
##atoes
kidna
614
bundes
tubes
##رة
##ener
##irl
outage
accuse
approves
texts
interpretations
925
punished
labeling
leaks
##ermen
524
011
complexities
##gevity
##analy
organizes
010
aun
ophthalm
hatters
##comes
##sthe
untapped
##awat
701
519
539
motorcycle
cemetery
569
surfaced
bronze
##ocaust
hermes
pragmatic
idle
clever
seltzer
##baum
santos
confrontation
h2
beans
systematically
##ovan
536
uh
wes
##oda
edges
zoon
garnered
##iscl
presump
autocr
holocaust
645
nutritional
bmi
consciousness
patricia
##agher
versat
teaches
rumours
hattersley
whopping
comme
dias
recoverable
princeton
667
gesture
yankees
marlins
inaud
553
557
559
522
bucket
aggression
proclaim
comic
##osity
medals
autost
546
##10y
kirby
plateau
relieved
chandan
##kg
##aryn
##indra
582
671
balls
anthrop
rowe
inaudible
uninter
impending
lightly
reinstated
berry
mobilize
gangs
humidity
hb
uz
shoulders
566
rockets
determinants
gand
instacart
##xton
577
774
festive
caseload
gul
rpa
##idy
residency
abide
attr
billed
storyt
latinx
pledging
downplayed
521
santiago
outfit
reclassified
##person
unsett
allianz
dracon
conflicting
montgom
lecturer
expedite
disregard
anglo
461
581
unnamed
unconventional
unconsolidated
consoles
aviv
slice
playground
enhancements
tep
##ocal
603
spouse
denounced
661
rainfall
##vable
nel
nyp
rect
##chart
shaken
differing
elevator
ush
performer
547
sulfur
7th
earmarked
protracted
rebels
542
stressing
editorials
tutor
depleted
diabetic
ding
##ilio
outsp
##encias
popped
automobiles
533
dressing
bombs
spans
cyl
balcon
peterson
synchron
586
594
lays
overload
intensifying
galleries
corridors
030
exits
maneu
concise
548
622
636
curfews
##du
##atisf
##entures
##idel
##chat
levers
delist
comparability
geographically
kilog
pupp
vom
£8
##hem
##fit
##iste
hels
##downs
starter
nytimes
lyon
splash
mj
бо
##vp
fraser
leb
##avo
##ixis
breaching
ji
##عل
unin
572
flattening
peanut
£7
##ylan
thermo
venezuelan
draconian
flux
paribas
##erness
immunotherapy
##face
securit
midterm
rivalry
unturned
redundancy
vuitton
baj
serie
lessen
runoff
messi
007
##oya
turbo
678
bolstering
mysterious
bse
bame
fend
hajj
gram
traits
slee
romantic
deportation
incarcerated
##arden
invers
copenhagen
caes
enhances
635
intentional
##borough
1950s
##isers
##illon
examiner
2031
##rets
##aku
remedy
##timeout
churchill
saves
marin
adr
indict
miner
popping
publishes
reagan
alice
prada
abrams
marginally
568
gat
jbs
lal
##чес
reuse
flames
stocking
releg
waived
561
bits
##inals
##illas
brighter
callers
##aphosa
588
##official
mercury
brookfield
lifecycle
nause
tinto
##ulous
##ouses
educating
bulletin
##бо
##onn
claud
boring
528
sickness
welcomes
##quin
731
060
fixture
elic
sticks
543
vacant
facilitates
leverages
iz
npr
citadel
ciud
warranty
alexandria
lidar
oncontent
spurs
clare
609
erik
sanitizers
accumulation
anchored
theoretical
duck
mush
##hart
##fy
##isen
custod
ministries
animation
fy2020
mentions
naming
##jin
rebo
organising
552
destabil
rocked
pixel
aar
fence
paedi
erosion
##ית
taip
configuration
cic
jas
اس
##ectin
##iale
brace
masses
674
nomura
forgiven
tumbling
funerals
snapped
ub
##yles
##adata
crater
planners
755
conversely
lieu
##arceration
montgomery
##ombo
##user
brend
704
objections
amber
parity
insecure
talents
657
titres
685
mccl
vigorously
##vine
stitch
822
extrac
underwriters
opportunistic
mali
616
obliged
innocent
superintendent
niaid
gur
##town
mash
completeness
parkinson
sandle
mock
lax
counseling
redundant
glucose
inpatient
assort
cov2
595
exploited
massacre
kkr
##gc
classical
washed
651
alternatively
spacs
reinforcing
shortfalls
clotting
из
quota
playstation
multid
768
shrug
outsized
nostalg
wik
aftermarket
halved
653
578
unlocking
wynn
burgeoning
stems
hait
electorate
burk
hinted
fitted
##bu
852
suppressed
tatt
meyer
admitting
644
ambig
convergence
##udo
abused
##ointed
progressives
556
532
733
915
1981
comfortably
finishes
philanthropic
rookie
fang
##get
##anmen
depreci
maje
tribunal
forens
##attering
491
counterfe
rheumatoid
fizz
growers
assistive
ramaphosa
##tar
##iche
imposition
lineage
erin
landsl
cpg
tiananmen
pyr
##их
##orig
shorts
chew
loosen
devops
474
541
598
1986
jesse
multiples
coincided
sounding
patterson
kc
marketable
709
births
613
mutually
linux
habitat
nucleic
kaplan
iver
rite
##kal
rey
spider
591
clarified
underscoring
airplanes
sulph
recycl
glam
659
substances
alberto
009
convoy
649
displacement
specializing
708
hoch
decis
##gren
blessing
slipping
##apps
wrongdo
duncan
unproven
separatist
cada
##olism
##unted
687
schmidt
fen
##erance
ifr
micr
pinpoint
cyberattack
elisa
revamp
performs
554
975
disparate
##ча
autres
chrom
wealthier
viz
dilutive
070
removes
boutique
kom
malnutrition
637
811
presumptive
southwestern
burberry
oliv
##אל
2040
amateur
668
countermeas
mmt
ethiopian
portrait
vintage
4bn
mizu
##anto
mink
##psis
cleaners
exiting
boo
explanations
stacked
##otle
publicity
paradox
vez
##ennial
624
millennial
keral
moist
unstable
uranium
mitt
لا
amr
expansive
sacramento
reshape
##opia
factoring
generational
##oba
639
##بر
coke
genomes
parish
oem
antagon
kyodo
bhp
qa
discomfort
##lessness
kinderg
781
captures
jeopardy
parole
segu
970
disciplines
lenn
marque
50s
provoked
cytokines
ras
##waves
##قد
deterr
sharon
csl
lynn
ix
##ride
##eso
comun
neiman
802
aster
714
unconsc
gentlemen
##blo
berk
exhibited
collapsing
cott
##boy
chaired
sny
626
otros
##aient
##ар
##illary
compelled
canopy
forecl
grocers
hayes
prudential
sanitiser
##hm
claw
semin
dwindling
yoshih
baked
transat
subcommitt
nir
woo
##xx
southeastern
cartoon
tiers
wax
ears
geomet
billings
607
##aido
avenues
monument
sham
##iseach
842
emphasizing
coupon
hierarchy
a¦
charm
757
828
govt
cia
kod
isis
##aped
delete
goodman
aal
##rial
roma
vista
equin
particle
calib
therapist
845
sinopharm
cowork
stubborn
ae
s4
zen
##orte
##ibil
699
mackenzie
aka
jokes
vale
maurit
##esk
longevity
##namese
abort
##price
farther
blockade
bancel
pj
wir
strides
##tedance
forums
unhappy
bureaucracy
kios
monde
manually
sandra
imagery
thresholds
unwanted
nadal
stewardship
gum
##info
outflow
shorten
771
vietnamese
carlson
cto
lament
haem
serological
652
2029
medtech
bloody
672
695
040
compounding
flipboard
##brook
rams
##oi
inqu
##oui
highways
jobkeeper
905
floated
mourning
antigens
fancy
##qi
##elial
008
##etera
##سط
##icio
##acare
bytedance
reasoning
819
centred
freeman
601
respirator
848
0800
psychosocial
##ostic
normalize
downtime
##isclosed
headwind
swine
835
joyce
disturb
666
boxing
1967
onsite
squeezed
unaware
reportable
misman
813
sorting
plains
2020date
mesa
df
automating
disposition
yielded
pyong
endeavor
pec
##enow
ate
undisclosed
primaries
761
outsk
tipranks
staggered
التي
cigarettes
kad
##об
##ocaly
undercut
somalia
643
hungarian
kerala
fave
##master
##cliffe
lesb
outcry
bian
nacional
##abank
elastic
questionable
809
688
nypd
slog
هذ
##hou
casos
backers
conde
tolerate
intermedi
##thia
##anya
656
sophie
underscore
hollow
ack
generators
scandals
taipei
qi
##enne
##este
##insights
1970
neces
repeal
##001
rebell
015
homem
intravenous
dai
kt
raph
##rea
##ressed
##affe
millones
693
972
lucy
susceptibility
disciplinary
##inging
computed
sepsis
guill
592
echoing
vivo
infilt
##ercich
breeding
christina
awes
barda
generale
morales
amortized
clarion
hulu
##verts
##intestinal
608
632
741
vacancy
transferring
islamist
profoundly
ncaa
outskirts
cmc
lira
ramadan
beam
chung
foundational
warranted
bla
archived
sharpest
leeway
authenticating
unintended
bore
latam
664
mistaken
supercomp
sidelined
##arie
whitty
751
kitchens
hl
asi
frames
##alla
commerz
statues
contacting
electronically
##partisan
remedies
##dar
stones
defund
openness
##rium
conventions
rv
ui
traces
##earing
aca
633
manipulation
underestimate
chatter
barnes
stealing
764
916
812
optics
stag
bash
kashmir
wishing
yi
invesco
lien
gtt
nis
sante
tah
##think
##inki
camping
certifications
wooden
contradict
taoiseach
mizuho
subcommittee
hints
thunder
inad
plates
sheltering
luckily
incubation
malawi
stretches
accredited
filib
629
colder
stifel
wur
##etus
itv
##odel
clad
mae
648
scoop
algeria
€m
stain
sung
coins
##ignment
##ounted
liquidation
729
pretend
kushner
daw
##thly
honors
gastrointestinal
pyongyang
##34
seiz
instinct
queer
bolivia
oslo
hpv
myths
repurposed
vested
##uania
archer
bolt
unscathed
carolyn
resemble
repeating
torres
disinfectants
adhering
asa
##grande
682
revisit
hust
kb
mam
##oco
expelled
query
discouraged
##orrh
enemies
mea
seriousness
grounding
576
778
gears
auch
lak
worris
compensated
kimberly
skype
permissions
676
breakthroughs
deceased
mueller
abundant
lakers
##аль
##sted
801
006
673
090
inequity
levine
prescribing
##original
commerzbank
rol
##far
##ու
genetically
##events
verb
groundbreaking
treasur
623
remembers
worrisome
upends
schul
microph
929
rho
lithuania
arnold
706
679
885
transactional
inhaled
apologize
tiaa
mou
##rest
reais
sagan
unpar
submar
##annon
749
dominion
olig
polymerase
intriguing
tommy
##vet
##jas
indem
justification
differs
658
795
allocating
arbitration
reintroduc
fiji
untr
financier
865
deduction
unmute
mixture
vy
negatives
sheffield
hg
implying
ahmad
##ompan
684
716
ftp
registrations
##oj
##لك
##isable
conceptual
irrele
mutated
fishermen
enzymes
transact
carb
803
baghd
biomarkers
forc
wei
kindness
##kea
negotiators
dimensional
awesome
nct
inactive
useless
753
consulted
hoarding
gould
adss
creep
##ommission
697
cousin
3bn
707
##foot
outpacing
inexpensive
nec
suing
##umen
timber
scler
terrifying
tweeting
crippling
cw
##killing
##abel
الب
volunteering
heinz
acorns
newcom
pushback
723
hugo
pertaining
derechos
chauvin
cues
##bling
##itating
irt
794
harvesting
inspectors
ceasefire
enfants
##ivari
contex
doh
underrepresented
867
sdgs
jenny
restraint
ursula
##ulators
##abh
vaccin
nonpartisan
nyu
cooler
lil
wield
##ecified
pep
testify
773
681
sandler
dorsey
peptide
aesthetic
contexts
calam
22nd
extremist
inflicted
##ancial
##sover
677
incumbents
stephens
##say
##aton
framed
incarceration
814
##ombie
##people
guangdong
majeure
##imiento
022
vw
abra
gras
debentures
inflated
902
derive
bayern
freddie
wrongdoing
resins
spree
varad
halo
627
818
maximizing
eyeing
reminding
sdg
dirt
isaac
wifi
##atement
triv
protester
construed
touches
bureaucratic
lup
##ции
strictest
nicol
dx
daim
kane
pich
##si
strauss
732
838
paralympic
helsinki
recuper
invented
origination
##esthes
berman
hir
##bush
scattered
3200
glor
739
falcon
pumped
decarbonization
specimens
extradition
unparallel
strives
barber
808
separating
exhibitors
superhero
contenders
newton
depths
gin
degrad
specialised
psa
danny
##las
undergone
surreal
staffed
motivate
dismissing
anonymously
aaa
##rat
##icz
peel
relocate
softer
tigers
wand
##fair
##anza
overla
devise
686
dependency
##falls
csi
mentor
columns
unparalleled
##litz
billboard
evergrande
seafar
caterpill
##им
##xiv
marched
663
indianapolis
jacqu
unsurprisingly
sif
##rac
##لة
coerc
mtn
yoshihide
bimon
stockholder
entail
sworn
gofund
handy
719
ultrasound
outspoken
clue
alleges
696
0917
883
horses
bimonthly
ea
vascular
wrought
##ullah
funnel
distinctive
finnish
rp
nears
mids
debated
858
766
945
teresa
katz
patron
valve
919
##erable
alloy
groupe
727
acknowledg
polymers
sanitizing
grapples
remediation
lounge
haird
midlands
identifiable
703
fluids
763
hectares
jian
##birth
##وت
##ader
unwell
##ewan
662
prioritised
withdrawals
lec
654
##uffed
burr
styl
dont
measurable
swall
southampton
786
895
absorbed
argentinean
outnumber
attribute
selfish
menos
nikola
bik
igm
##idental
risked
738
musician
clarification
underestimated
envelope
##store
diners
gofundme
aboriginal
plight
glove
patented
lance
euph
##atchewan
novo
plummeting
merits
concluding
##encion
railroad
##healthy
tus
collects
##uelle
merged
bunker
saskatchewan
##ww
chu
demo
commissioning
854
recipes
kudlow
velocity
rode
exert
pepp
additive
italians
dess
##mectin
undefined
countryside
closings
##green
025
##arias
shrunk
incorporation
ankara
frenzy
kurdish
##pared
hardships
##itories
waits
msn
laurent
turbine
infrastructures
##bp
quell
commuters
blowing
priest
empir
avi
importing
pollut
reassurance
plummet
unanimous
shutterstock
ave
memp
pis
##ono
exterior
resent
afl
criticizing
##aidu
xp
##tags
choppy
scha
discounting
subordinated
nolan
vil
looting
##rupts
armstrong
discourse
mohammad
indefinite
irrespective
astonishing
porn
asians
arbery
inflection
apocaly
pulls
galactic
shielding
brookings
outpaced
daimler
raff
##tronic
##elia
canned
smallpox
cups
1985
sanct
assignments
yokoh
kang
##이
conserve
limbo
rollouts
protested
711
789
868
##qs
##مة
drum
revoked
862
azd
cynthia
bbb
recurrent
##uba
innovating
shuttle
726
846
gardner
##law
sak
scholz
layered
941
949
965
palladium
infrared
paving
##iya
##packing
upheld
airfield
##uka
796
bouncing
steepest
bundle
##kill
##تس
alc
importers
squats
orthop
ivermectin
##aunch
shores
unitedhealth
pads
bakery
bruno
olivier
resale
unload
843
validity
irrational
dbr
saga
##orman
organise
froome
tecn
forged
isg
raid
bioc
zwift
retains
imd
initiating
##iosity
overseen
oversupply
847
dunn
rafael
finale
twitch
mcen
881
translating
ticking
proportionate
sodium
ebook
coral
807
758
779
##name
genesis
##asha
subsides
884
##ativa
seab
contre
watchers
7193
muy
shouting
המ
##ור
hasta
repression
gallagher
neuroscience
shattered
incl
cashless
996
bucks
latency
الن
archae
rosa
##iyev
reputational
rodrigo
##amiento
deceler
baseless
806
742
095
samantha
incorporates
interfaces
roberto
segregation
jed
ning
corr
##eye
earnest
versa
glory
5883
728
##uffle
maturing
inhibit
pearl
enquiries
atomic
ries
brennan
totalled
referencing
scalability
ucla
fathers
##aul
endow
eleg
yokohama
brake
bricks
estonia
analysing
consumables
primer
##riage
##goers
contentid
909
mcg
##first
unbelievable
vou
vicious
strings
widow
cheering
694
dade
бы
##nick
##bilt
improp
moat
competence
transmitting
echoes
remittances
filibuster
tosh
##ellan
##ushi
template
724
olivia
redevelop
apprentices
cen
cetera
##ינ
876
bombing
autostart
ld
wint
##يين
##etonext
chow
deer
enl
827
playerprop
noticeable
cvpid
unpop
unaffected
##rice
##itics
shakes
ivory
magazines
cosmetic
intrinsic
gild
unis
mao
consumm
criter
913
##writer
incorrectly
authoritative
698
816
laughing
invalid
aph
isl
734
transitional
869
836
##сть
ruin
nah
persecution
الج
995
748
franchisees
unauthorized
indemn
##inently
basement
streetevents
717
1945
sixty
9th
vag
##mobil
##614
##하
reclaim
##unders
deficiency
roadbl
721
978
occupy
chipotle
editions
existent
respecting
organizer
##ammer
wmt
##once
progressively
fundraiser
flourish
countermeasures
kron
suppose
futur
712
shoots
inherit
wished
wounds
##plex
guitar
periodically
norman
035
installment
ousted
decommission
blues
confection
sentin
obsessed
736
diversifying
mathematics
##סט
daytime
philanthropy
##ᅳᆯ
forex
##akeven
footh
crossings
1976
hypothetical
nausea
cct
##ionage
##terest
##imi
##ospi
warfare
conducts
pharmacists
##gyz
lymphocy
dumb
silk
018
##door
hoax
936
naomi
persisted
inefficient
crippled
shepard
##лу
relaunch
##ondition
retwe
cleans
pointers
happier
breakeven
disclosing
ain
##haw
##aram
cofound
normalization
transmissions
culturally
touchless
municipality
##funding
ee
##ecta
clor
flame
conceived
ipsos
tokens
caterpillar
uy
leurs
scooter
##azo
collision
gaug
wearables
optimise
683
implant
##rex
856
899
aligning
mln
dialysis
unicorn
fpnv
dab
vive
كان
##ourt
##itsu
redep
landf
illicit
849
075
fuelling
apologized
gens
692
817
counterparties
kum
inund
usc
learnt
personalised
independents
approximate
sequenced
pouring
memorable
cartel
alej
cider
##zers
##aris
##asers
framing
unhealthy
facetime
861
digitisation
zhu
gobierno
diving
undo
genius
##rester
diary
914
##kinson
##rez
perimeter
##shares
782
theoretically
tirelessly
assortment
gove
outlooks
quentin
buenos
marching
provoc
auditing
882
rsv
nour
##ид
##leen
marry
##ushima
752
mitigated
perceive
trimmed
p059
commemor
wie
zill
drift
864
943
foxconn
render
deux
underwater
similarities
recognising
messy
evaluations
sirius
lisbon
##abst
brits
betray
teammate
100m
exchanged
798
834
paediatric
для
inaction
804
783
lifesaving
carcin
ual
##gates
moderation
greeted
vii
terrain
chefs
impartial
jm
##pub
francs
ascertain
brendan
hairdress
##wave
forman
873
##ить
hansen
anecdotal
unpopular
gyn
##ois
##enk
webpage
scooters
##rik
##aden
sax
expedited
impetus
837
depletion
lmics
##uded
##loe
insect
geological
glac
857
722
spinning
comedian
hib
lags
##lr
##opathy
thematic
##insured
broadest
erad
paints
824
chanel
cigarette
ccl
##ulator
##heet
mailed
compromising
solicit
reinforces
naked
##asth
sergio
visma
641
784
metabolic
tul
##iac
compart
drake
avoidance
attraction
829
kyrgyz
cepi
##stra
##antz
doping
##onal
notch
blizz
entret
958
embarked
ocasio
encompasses
##isch
shapps
guer
clinician
985
neonatal
vmware
evan
egal
##effler
##ohoo
psychiatr
refreshing
gcc
##otto
772
744
##baix
nicar
kris
##retion
deliveroo
886
988
928
nicht
dresses
baird
duc
##mind
flocked
evenly
973
kospi
##buy
suez
outstr
crafts
schaff
##atti
integrations
922
examinations
935
procedural
streamlining
zheng
tribe
freelancers
reposition
locate
favors
013
mattress
wealthiest
##enic
marr
aires
etats
christie
045
refractory
piled
zika
##ugen
formid
traceability
excerpt
interviewing
angels
853
cheered
##50m
sadness
uninterrupted
8th
katherine
unjust
agon
readjusted
inhibiting
exxonmobil
deserted
##ifs
singular
deteriorate
underperformance
predecessors
voyage
amenities
prizes
apprais
easiest
754
019
788
persistence
warsaw
wfh
##elig
conse
prostate
incap
##ungs
993
939
utilisation
dolph
parcels
dn
##tree
forrester
cobb
cout
endorse
phc
insulated
##cribed
691
769
railways
pitched
##יות
marty
grains
solvency
bior
ufc
##rar
##emarket
appreh
testified
authorizations
broadcasters
rehears
simultaneous
diverted
heterogene
##uis
inm
minors
centralised
surgeons
776
912
bernal
##ilation
##acia
groundwork
997
routing
mutate
fraudsters
murdered
rica
##cot
##حت
##isplay
##owe
##ogy
developmental
642
adhesives
rented
##rise
##rica
##atica
edmund
mosques
dior
##arth
alumn
noaa
mistrust
lifestyles
hypothes
eradicate
jaw
##estone
##opoul
hex
cran
getelement
avian
localized
##byid
851
nombre
registrant
tmubmusd10y
getelementbyid
arose
tires
##amily
cob
refocus
fury
756
oversaw
venturebeat
jacket
nipp
##jab
##redo
angus
florence
863
831
altitude
antivirals
ail
##zel
##olders
formulations
strengthens
benign
leonard
notoriously
jagu
mourn
##icc
dots
disperse
christians
923
mercado
epicentre
dictator
skewed
inadvert
clorox
ia
##reb
##insky
759
extremism
##ение
nood
955
handsh
reunion
pedestrian
unsuccessful
lips
мо
##onica
##leigh
##ieva
##continental
irrelevant
infamous
knife
espionage
exhaustion
knocking
semb
##orph
##istar
boohoo
lime
edison
microbial
017
762
793
823
printers
declarations
turkmen
asserted
gdpr
##שראל
wren
deere
syl
posters
curves
curiosity
misuse
israelis
stephane
horizons
cma
nay
laf
memes
sizeable
holidaymakers
castro
downgrades
cairo
nano
tipped
vinc
##liness
spont
clashed
##anga
greet
videog
maggie
reinstate
gareth
skincare
oscars
burs
binary
##ecked
gaut
016
mercant
optic
blasted
obstruct
puede
bones
reminis
controllers
pasta
devi
962
doubtful
symbols
navigator
cures
rach
£9
##ibi
smbs
donovan
mori
divestiture
formidable
##quet
debating
##brit
bullion
mab
ripe
##undi
variance
abilitylab
microch
889
meatpacking
zhong
bnpl
dt
couch
##arges
filtering
982
toilets
repatriation
gis
rak
##300
##شر
paramed
bullets
paso
alcon
digging
##mington
tsa
##business
##advis
alarmed
homework
##tega
correctional
imprisonment
mesh
##pur
medtronic
substantive
ramps
romney
descend
nasty
6bn
##itech
conoc
unith
leh
orderly
pleasant
kard
entrev
resolving
##ventus
cue
kern
kai
litter
mimic
stab
##aura
841
prisoner
kenyan
emphasizes
uploaded
scholarship
multifamily
parsons
perdue
pogacar
##andra
938
chapel
restraining
gerry
lans
##adors
adler
profiling
014
koh
visualization
tempting
hats
##kowski
##iona
##oggi
labelled
neurop
pvt
congratulations
ammun
oilprice
burch
armenia
transitioned
circumstance
الاس
ladder
nuanced
underperforming
zeit
##mobile
afgh
schwart
pastor
leary
##2022
897
maurice
wn
##iert
906
792
раз
peacock
##ostat
reviving
harmed
contextual
rotating
lectures
##tb
layout
027
junta
lucia
repar
rooft
antony
##amedia
fading
##nrt
afflic
metaph
practicable
blocker
crowding
magdal
wheeler
andreas
sewage
impover
twinges
879
797
migrate
khash
dodgers
fy2019
neat
loom
footfall
jeans
055
tuna
frightening
##emaker
trent
demise
##park
##ycin
832
ancestor
ammunition
accent
defiance
moms
screaming
licences
pinterest
jacinda
ghg
treasurys
dare
upr
flock
934
gee
didi
942
reconfig
fy19
rmb1
buddh
coherent
sentinel
##nis
##kered
workday
encouragement
renting
galvan
outbound
poles
attractiveness
hoover
ccp
bleach
soybean
dictatorship
##andex
##swick
##flu
felix
varadkar
jh
mast
##aban
phy
874
emeritus
cual
roaring
surrog
humble
051
826
hypocr
931
blogs
##licity
##onymous
bapt
##fet
##ascript
##antir
guilt
947
sally
zach
doom
sheikh
modernize
frontlines
embar
akt
##lovid
brf
multitude
heartbreaking
matte
breastfeed
##pad
##amiliar
wellington
894
experimenting
prejudice
##biz
inland
##chaft
acutely
viii
firearms
roubaix
unconstitution
enferm
seafarers
blizzard
kering
rats
918
bailouts
terrorists
zillow
##ady
gloom
swir
##cloud
peacefully
snowfl
jenkins
nokia
utterly
whistleblower
vida
elusive
liable
stimulating
991
mechanics
stiglitz
unmanned
khashoggi
docked
##wash
chill
unear
planner
locker
sandy
javascript
##abstract
complied
allergies
concurrent
##text
##riors
eddie
tarn
fomc
aly
unfamiliar
989
shallow
nicely
enrolling
deported
indictment
bened
##hia
##gain
##gust
##enta
sauce
overre
grill
antar
representations
superstar
complicating
supervised
unfolded
envisioned
typhoon
##zbollah
storytelling
##lian
operative
flanders
blaze
nationality
palantir
baum
focuss
grupo
iber
jiang
kend
##adjusted
offload
timed
elaine
##elez
abandoning
fernando
lymphoma
luther
tibet
hbc
kamp
tyr
wired
##dened
isi
hezbollah
cramped
swa
maximise
irrigation
bmc
pants
becker
descriptions
recordings
situated
952
ica
##blown
##apeutics
oxfam
steroids
benchmarking
sigma
cybercrime
##gets
arter
bowling
dimon
composites
bree
nft
clam
wellcome
cardinal
057
fluctuate
adventures
revelations
tmsnrt
zm
وا
unofficial
clips
estado
921
andersson
humph
lloy
uplift
funders
sentencing
dispersed
gouvernement
nish
##olet
contention
organically
878
987
pods
926
aligns
baht
##يس
perth
monopol
divert
887
egm
1972
tolerability
zoonotic
lull
€6
transp
barometer
berm
lur
30am
humili
glitch
746
replicated
deductions
summarizes
rost
##elly
##ivimab
pras
superb
mclaren
neal
disgust
insurg
fait
dialog
sacred
peso
sympathy
maldives
homemade
sis
##elm
infinity
specially
urug
##bani
muh
pavil
baghdad
faded
klo
##nen
##mill
##pol
conway
marches
warriors
904
madness
exhibitions
unfairly
deductible
inovio
pains
ratch
##dan
touring
##forest
californians
renmin
authenticity
trickle
heralded
pud
vivid
£20
humoral
characteristic
dangerously
diminishing
poisoning
##inable
##enden
speculate
ensemble
872
969
932
1973
harnessing
gle
ond
##rates
##itism
shu
underp
gamma
chilean
glimpses
اي
atop
autism
accountant
nominating
023
unveils
repetitive
paxlovid
s2
roller
032
948
procter
lindsey
sclerosis
##gies
##не
##bern
subpo
871
inhibition
المت
mantra
vanderbilt
afghans
pty
вс
##وق
##ще
recognises
faire
archb
unprepared
mcenany
aless
1920
regulating
michele
consolidating
aspiring
videoconferencing
dylan
guideline
031
jonas
cfos
cctv
aliment
obam
departing
nfts
##arty
increment
##ethe
genre
periodo
gallup
injecting
accomplishments
cip
sunt
##ishnan
php
carmakers
airway
cracking
metallurg
wwe
relocation
mins
debilit
telco
953
muscles
caregiver
unaccomp
fracking
##intel
squibb
feedstock
reminders
ironically
wholesal
pantry
nixon
ply
##rp
planted
984
toolkit
nflx
reportlinkerreport
summarized
gnwabout
reportlinkerreportlinker
##zyn
##andan
transc
antes
telef
punct
jamaica
gymnastics
gandhi
##ku
##ilater
degen
shook
##vered
aln
altering
spor
contender
##avier
recess
despues
077
977
werden
intimidation
oanda
touting
savers
##unas
carm
079
adaptable
redeemable
syringes
nicarag
unaccompanied
colours
calibr
prohibits
reshaping
higgins
##mg
##يو
chorus
brom
munster
cheapest
##keepers
centrist
memphis
pont
037
##aic
statute
antic
persona
##awatts
dbs
agu
##valence
firewall
correspondence
overcrowding
reconnect
bode
interrog
976
927
ocado
enquiry
gend
scroll
10pm
##marks
denis
juventus
categorized
unreli
plots
shining
tracy
informational
denoun
psg
xinhua
loosened
docus
mould
##nings
##cient
pared
##shot
obsol
agricole
inhal
culp
7b
graft
nodes
feast
potato
plex
901
cunning
carlsberg
kins
##entry
perks
parl
virtue
##701
dealership
brewer
##jik
##irm
fringe
disqual
nonfarm
refine
##2019
histories
burke
narrowing
monkeys
patriotic
dengue
toby
revert
##agi
whichever
wedbush
1968
worsens
petrochemicals
aussie
2x
cardboard
destined
964
968
dragging
roglic
entertaining
teleconference
pitt
##кт
remembering
moderated
phillip
otcq
forensic
gome
unres
abl
totalling
##ternal
afforded
neutralize
ambassadors
fragr
quiz
assange
preschool
discarded
defying
deepened
harvested
lpg
werner
delicious
907
inferior
##fk
chess
eyed
dispositions
accidentally
goss
gamb
nivel
shit
accretion
overflow
encore
phenomenal
wrestling
bishop
rath
##56
##anzi
valves
896
089
ibrahim
dissemination
fos
##rina
##aques
reich
##igene
contests
amin
revived
tamil
summation
reckon
brunswick
raphael
inelig
heed
underlined
topline
998
icus
harmony
prestige
obsolete
revenge
affinity
divides
954
champagne
##ariat
fifteen
reboot
defied
40s
891
hormone
supremacy
empresas
cpa
naph
tucker
stave
firsthand
benefitted
foley
898
magdalena
الذ
029
hamas
kara
##ут
##ativas
##arts
##chester
cory
researchj
morg
therapists
1975
darren
gv
jing
pab
wines
offenders
signalled
##enew
951
ranch
eliminates
snowflake
##tles
##osn
mcgr
ancillary
mahindra
decarbonisation
anomal
##emont
unilateral
##ancia
sheep
098
hawaiian
distracted
expiry
beers
rescind
corresponds
geriatric
helicopters
prompts
personalization
956
rangers
draghi
##hang
##eties
##utz
bele
gao
modeled
##proof
##iyama
kardash
penc
carlo
segur
957
tsai
pinn
##رب
globalisation
keynes
inspir
981
038
944
brighton
jub
lse
##alk
carne
seasoned
microp
theresa
energia
oreal
##eston
1500
##show
sync
preferential
confidentiality
undetected
##lantic
##olin
integrates
039
grabbing
manifesto
archbishop
baidu
npl
##عة
johnny
ceased
javid
cote
vip
levin
##ntr
##otti
damn
pascal
hanks
militants
mellon
wheelchair
attracts
vomiting
unconstitutional
##clusive
##idan
importer
rapper
tailwinds
scotia
الان
mk
mls
zim
2021date
titers
festivities
##راييل
7bn
yandex
uninsured
segun
971
cholera
ich
tien
updatec
progresses
unhcr
burkina
dough
lovers
serena
knees
robb
049
085
083
£100
lindsay
unrealistic
tert
##eners
alicia
heb
##geal
preserved
autoplay
5000
994
974
##wright
ailing
##notes
exotic
suites
looph
scout
924
fabrication
onsl
mvp
8bn
wane
##pot
##же
schro
grands
payne
inflow
wonders
nuts
astronaut
disagreement
refrigerated
guzman
activision
cultivation
mccorm
cornwall
dietary
pedestrians
rituals
decisively
rim
uigh
##fed
usaid
cultivate
026
punishing
microscope
هي
##epl
evp
graduating
073
963
lieuten
##grown
##قة
inning
spate
crumb
respite
mighty
##klury
ely
oft
arises
##asonic
024
071
lloyds
##etto
deserved
presidente
biologist
angola
injunction
979
organisms
randall
volunteered
msnbc
airspace
veklury
903
crafted
nct0
yosh
##kings
##atan
##icao
resin
willis
infused
loeffler
assertion
departed
ventilated
lengths
stabilizing
pemex
##aryngeal
##good
stella
avant
##flation
scripts
933
strait
kenny
seropos
tattoo
##فا
forfe
uso
##enny
sunlight
preceded
diamonds
erode
combustion
onslaught
fist
zah
expiring
sparks
##nga
suspensions
946
prosecuted
hatred
rochester
##ompanion
nina
##full
##thon
##illes
unex
prey
bugs
autos
nonperform
generator
stimulation
dominating
dictate
bcg
unitholders
ains
##eon
funcion
greenfield
erased
084
065
069
astronom
fukushima
fon
##yers
##rington
nlp
3200email
dwar
inched
doyle
drills
skate
occidental
waiving
palo
074
georgetown
troy
endslate
furnish
##videoexist
patchwork
##layout
degradation
autostartvideo
updatecompanion
autoplayvideoexist
updatecompanionlayout
##aste
elbow
herr
executiveus
892
exploits
sistema
servicenow
maidamedia
1100uk
tasmania
dmitry
stoked
bei
researchjesse
crise
masse
devon
batches
fetal
giuliani
##pubmed
aunt
##wd
##iran
adal
##osta
volcan
##workers
033
wiping
floodgates
dismissal
reeval
##cely
##onne
diets
062
elders
koike
sincere
arre
informa
barrick
coveted
giuse
referrals
gynec
€10
##ivating
quir
##iera
guj
gregor
departures
completes
battled
028
coughs
boomers
boundary
robertson
пер
##oints
##revalence
spinal
striving
overrun
lagg
lori
##occup
perpetrators
ln
##ischen
##stage
technician
slave
omni
##cripts
racially
silly
emphasised
rebellion
abraham
mercantile
quasi
##ogo
arv
##eryl
capitalist
rao
complicate
hamsters
darkness
categorizes
ineligible
aig
taj
##iaz
##doch
vigilance
dampen
dilemmas
sutton
rewritten
€0
brl
edtech
ethere
sickened
proportional
proponents
cess
##iras
overst
passcode
hyatt
brazilians
covaxin
##pac
taxing
##parable
skys
##neath
replaces
grading
042
prohibition
cocktails
uncontrolled
##amoto
backstop
designnews
everest
disagreements
tilt
britt
branson
undeni
underneath
mri
hyster
034
disappearance
renminbi
dice
inex
invoked
##ribly
goldstein
microb
кото
underpinning
kawasaki
pale
wilmington
##patients
pueden
mug
839
cracked
##criptive
drif
##ovich
##anni
osborne
rebalancing
giuseppe
croc
##del
lima
summers
cellphone
992
criticisms
fashioned
toxicity
inefficiencies
##ections
directs
tottenham
earns
winston
libyan
967
fragility
sido
biz
marse
corby
aspen
##igna
##atta
commissioners
thriller
##сто
habia
schwartz
yates
##oronavirus
onward
##emate
coml
payer
959
##ukin
099
forestry
anand
roh
unveiling
alerted
corticosteroids
##nels
informative
sidewalk
terrified
magu
utilizes
##ienne
patriots
ciudad
baz
welt
##icist
##ilin
wasting
uphill
3010
behem
biol
narrower
showcasing
inferred
crawford
ks
lys
##fj
##ую
##cht
discord
apex
052
kindergarten
bw
toast
localised
polluting
nyt
allegi
jefferson
obligated
furnished
scandin
eclips
cage
abus
mined
milton
tvs
watts
nanotech
cadence
practitioner
ingenuity
hq
nair
tcf
overarch
##apeake
misery
046
983
078
bottoms
ericsson
irony
stigmat
lauded
exaggerated
pilgrimage
hamburg
irtntr
drow
xavier
notting
937
gala
rows
##ход
##energy
stacking
recourse
debuts
068
036
graff
tailwind
patriot
##allocated
joked
nerves
reddy
refere
vera
suncor
dominican
romance
adversity
uygh
overarching
qing
##או
##ativ
cong
avoc
debun
skel
negligence
##жд
##icidal
##ricted
##phal
1983
balloon
slovenia
gomez
hairc
revaluation
##struct
059
rejects
woven
mongolia
##57
##wig
confer
hereby
##obi
anxiet
draftkings
folk
obscure
unreliable
kavan
rl
£12
##yte
##quez
cmbs
lobster
mirrors
newfoundland
tund
##roe
chong
flies
##azer
danielle
pivoting
dampened
nonperforming
fv
vern
##bay
taxed
slowest
synthes
ninos
transplantation
voucher
notched
gloomy
entails
universally
986
regenerative
faso
jae
regrett
mobilized
explorer
hui
attacker
047
extremists
bombard
portrayed
grievances
2a
lied
abbre
mint
##raz
metadata
omin
044
hypers
optometr
dips
##dem
053
vaxx
##osha
##ensible
blitz
costume
broadening
texans
fixes
boycot
prognosis
cayman
indy
patches
equals
diapers
bihar
youngkin
griffith
chesapeake
wick
stacey
shum
##ronics
provisioning
mentoring
flashpoint
pren
opaque
externally
missteps
056
ambulances
reaffirmed
bount
##oga
##lude
competes
weighting
rubin
bess
##54
##esters
havens
mundial
revelation
rattled
clog
jha
unthink
##endas
hydra
cineworld
cmo
ikea
piano
##haus
##lox
ratcliffe
cdata
dissatisf
pakistani
invoice
##ам
commencing
hostage
043
cyberspace
##array
под
sewing
cute
##onuc
compression
pertin
##iken
estud
factored
pleading
applicant
alexis
trainers
throws
seroprevalence
simplicity
zhe
ми
##hin
fres
##grade
subcont
cardinals
monetization
jenner
erecting
##500
##outbreak
sox
commonplace
soften
essex
replies
magical
maximising
##runner
hone
##inform
##otr
mari
adri
disgu
factual
complacent
awaits
lipid
prepayment
behemoth
##urst
heir
067
residences
sympos
derailed
cascade
beacon
desar
##ieri
sunset
murders
instructor
sailors
outsourced
condemnation
##ibu
##ieren
defects
tribune
memoir
dodge
sincer
confederation
commemorate
krishna
##طلا
resett
subgroup
coloss
accommodative
ticketing
katrina
impoverished
##pes
anat
capitals
staring
tutoring
cly
kathy
forgo
immunological
064
kyoto
tiemp
midfielder
sanctuary
uprising
aert
waving
adity
invites
bri
movers
prosperous
randy
buttons
disgrace
avid
sous
tenn
##cu
##idis
abdom
offences
convictions
##ент
الام
juven
ghosn
focal
impede
differentiation
096
attendant
048
catches
ambulatory
populism
deferring
swaths
uruguay
endurance
backwards
generosity
wrist
professionally
buckingham
##fected
alg
##anton
##actor
##encial
grinding
binge
dxy
vcs
chenn
##agra
##ucion
infects
feud
deput
cheers
murdoch
imprisoned
€8
##ал
##وب
##stown
onerous
##thi
##ipel
mapped
##engine
circulate
arenas
saudis
##gae
monuments
fod
fax
prescribe
evapor
massage
breaker
landfall
budgeting
owen
cereal
ives
lh
lago
sigh
##zak
fridays
orion
repo
uss
arna
poet
evers
##strike
dosage
filmmaker
bop
lact
##enstein
spurring
indisp
poel
insulation
splits
detectable
thrombosis
##في
##ghe
sonic
creatures
966
tribes
clauses
foul
prioritising
laughs
bould
sting
atp
impulse
infosys
058
punjab
calcium
diligently
endeavour
obamacare
anxieties
год
adela
canary
indies
blat
edmon
persistently
strokes
manipulated
mindfulness
##odal
taxis
961
switches
satisfying
papua
reeves
natalie
##lec
copying
bridging
##iberal
revamped
docs
naturalgas
054
8900
063
pinch
harassed
smiling
ante
receiver
aiding
088
troop
luca
slaoui
eroded
##tre
##enburg
impunity
joan
endos
091
fortress
characterised
matthews
ultravi
reappointed
indulgence
simmons
muf
لم
##ells
antis
##ussen
forwards
logan
dispon
diversion
undermines
moderator
corbyn
rex
shing
chore
mejor
keyword
silos
unfounded
072
telecommunication
spillover
0m
hin
##arf
marina
unans
unrec
commentator
curry
ecology
treasure
##toral
implants
redistribution
viktor
fellowship
pund
pemb
##miller
offenses
instal
deficiencies
propulsion
1800
baltic
##flash
041
nihr
nanoparticles
transatlantic
naturalgasintel
##pop
##ithub
enrolment
##existing
##ht
theirs
##annah
097
pollutants
hul
ucs
##sight
##ilumab
mei
achievable
organisational
sinopec
staunch
forbidden
waking
##96
quitting
##0000
invention
regn
modifying
sharper
lackl
criticize
python
bav
hort
campaigner
subjective
092
cushing
sneakers
jorge
dbrs
alumni
bts
signage
00am
camer
##track
##efe
heavyweight
namib
hyperinfl
valuing
cops
prohibiting
caveat
evangelical
duda
eater
##acements
adverts
##apest
##spot
courier
logos
natwest
postdoctoral
ceramic
shawn
fru
acoust
##antan
busch
##onds
ambient
defeating
paradise
hobby
##pu
##ische
reilly
pressuring
classify
##ylam
collectors
henri
applauded
adelaide
##iembre
usher
skating
hitler
steadfast
translational
prosecute
ankle
confectionery
4d
£15
##iners
##amar
arun
profitably
ryder
petrobras
binds
1038
outrageous
forcibly
itau
newark
##gee
simpson
##odyne
##pleas
rodgers
ordinance
##onavir
grabbed
##mith
acclaimed
lawson
066
tyco
incompetence
weinstein
symposium
hos
##pread
##تم
##erton
supplemented
stunned
inconvenience
rer
##rive
relaps
##ensable
sword
denomin
cheney
rendering
tractor
jens
oster
##tx
##hoes
shane
gogg
emble
protease
natgas
hindered
advertisements
dtc
nerd
##los
##enheim
anesthes
flet
foi
burial
embold
exhibiting
tastes
##burse
absorption
andersen
##ան
distributable
woolly
reimposed
equinor
2h
printer
obj
monumental
curtis
uzbek
ultraviolet
dix
donde
rack
##vr
trinity
particulate
simulated
causal
ignited
pitching
nutritious
unseen
inundated
schaffner
vant
##uven
##amy
hain
0470
backlogs
nph
pnc
regrets
knit
chairwoman
grenad
stereotypes
weathered
garant
github
zend
tobi
intol
##reno
awarding
championed
biomass
prematurely
cofounder
edmonton
##cence
##icans
##anye
bells
steeper
culpr
bosch
dismantling
versatile
jag
##sth
freeing
immunol
norton
##nar
tricks
cram
decoup
shareholding
postings
##mani
promoter
tempered
fremont
prolific
debilitating
tundra
jio
##clear
##ersk
uno
ada
##inders
caret
herb
bali
ulta
##inoff
calculates
implicated
thirteen
seventy
##gle
##eros
##awatt
epith
chooses
##heed
learnings
kellog
ritonavir
##manship
5x
aic
##iston
baric
varieties
guardians
allegation
reiterate
dispatched
cecl
reminiscent
duff
witch
##yards
##vian
##iden
alk
accuses
crust
cashflow
##aleaf
deviation
budapest
resonate
gujarat
fiance
miy
##uta
insects
farfet
076
hacked
disconnected
dented
##cam
ort
remeas
resultados
droits
coldest
punitive
##rology
relocated
wagner
suzuki
infringement
bastian
slic
hep
monotherapy
##ijn
erase
8630
layoff
bottled
alnylam
##unci
transcription
delle
##attled
drawdown
discriminate
tertiary
ngl
vog
##itively
chargers
##aguered
grieving
cunningham
lme
##qq
##food
ald
seizing
spaced
maya
signalling
freezers
greed
hostility
arabic
outsiders
imbalances
beleaguered
flic
lider
##wered
incom
leone
newman
intercontinental
##atham
potency
resultado
humanos
multis
immunized
militia
carcinoma
semblance
eso
noc
##fw
abduc
##ouring
experimentation
gibson
overlapping
inadvertently
##yd
##anks
tocil
exposes
##nton
attrition
calories
volvo
086
tsmc
constituency
##opoulos
fum
ilo
kyl
##eurs
##رت
sprou
manit
helmet
##uga
campaigned
stagnant
##ulas
contempt
lawful
rainy
1948
unthinkable
chennai
kellogg
lors
##cation
##hine
##imura
##arted
brue
micros
schema
unchecked
slogans
marseille
unanswered
wiz
##eny
prefers
##ultural
cardiff
094
082
intermediary
sumit
frustrations
1231
salvage
abdel
atroc
drafting
curaleaf
##140
rubio
unpacking
lenovo
counterparty
regimens
trabajo
lugg
##fh
stoking
bean
arrog
trustees
drying
ascend
cet1
wah
##zt
##olta
weed
mehr
rulings
embattled
planetary
cbre
##var
##jing
stam
drc
affo
adversaries
instructors
pablo
owes
royals
ciso
nostalgia
tocilizumab
boc
conten
strand
ahora
breastfeeding
ethereum
rag
##oed
##amid
treaties
personalities
الص
1969
rivera
refrig
acreage
##52
##fre
finanzi
caso
humor
curtain
offsets
##utter
##imil
##impl
shannon
##ipse
helpline
carly
midpoint
paralympics
cohesion
kry
##usement
recoup
upro
engulf
##omme
presenter
##annie
booker
##zek
##1222
defendant
polarization
unimag
decommissioning
##сс
##elic
##acas
##unes
##uninck
engages
burton
heavier
##oxic
beside
sectional
##marketreport
extrapol
bumpy
pinnacle
2t
dhl
een
##וש
##ainted
##ractors
macqu
hallmark
dissip
swathes
cme
pune
##grou
##ogic
schn
improv
shuttering
rebates
sensex
establishes
apologised
##wang
##ismo
breonna
acquires
suppressing
sofia
intermitt
luggage
hank
rests
restructured
embarrassing
##xm
##opath
atten
guild
lockheed
respectful
wallis
heaven
hacker
divergence
sobering
htfmarketreport
comlaura
baff
dancers
paved
tud
manpower
##keit
heroic
vandal
caesars
zak
comerc
##sein
dover
primed
managerpress
advertised
hamstr
inducing
stumbled
0470for
8630for
undec
presse
##trials
ridden
exploratory
bib
deem
##arya
signatories
##iasis
imperfect
paragraphs
deceuninck
chickens
##oire
##enheimer
trin
##afa
mondiale
crossover
voltage
gerald
oath
unreg
arist
addicts
transient
violates
1974
rainforest
downplaying
##vier
striker
scant
wrang
devised
especial
proudly
##нов
##ется
siege
hutchinson
lily
mates
spouses
intric
maersk
clears
pregnancies
##guardian
advertisement
tallies
wre
לא
##witz
tous
ascent
goth
##uble
candidacy
awake
tolls
discontinuation
cusp
hvac
راي
##aterial
offeror
tempo
amplifying
berejik
dermatologists
macquarie
rife
vial
wimb
volc
midd
087
repository
pk
##inetics
photographed
fragments
nuance
illumina
##itives
##rem
##ledon
greenwood
cooked
1965
ruby
rubb
##planned
ingest
competed
omaha
mentors
unspecified
nw
##lights
##enting
##thouse
asu
cores
mmcf
correlate
pamela
premiership
triangle
indispensable
aura
piet
##rating
##alan
tox
##uti
unmas
solitary
originating
stym
##51
##emon
chapt
##istair
##ermedia
monetize
chatting
satisfactory
hipaa
applause
wfp
empirical
sincerely
mute
aliyev
parse
swo
093
garments
scanners
##итель
chapters
sos
##mand
##mount
##وس
imped
capping
documenting
coincide
bribery
aes
##atin
admiral
##why
temporal
##каз
chengdu
turbines
mismanagement
bv
dum
##liga
##imoto
##eart
##therapeutics
insign
summaries
wynd
bumps
kpis
##omas
whales
coded
richards
merchandising
spearheaded
aung
##طر
goose
oppression
localities
##heads
##hyd
repurposing
matteo
kardashian
bruegel
vous
carve
carey
expressway
nightly
aussi
mujeres
berejiklian
##87
##eley
##otec
##ithrom
##check
maver
gret
owens
peptides
nicaragua
otr
chir
prints
purification
finalised
nominate
lasers
bobby
sceptical
foothold
nippon
sop
zum
blanch
startling
viacom
practiced
personalize
angered
iceberg
wimbledon
##idian
prism
##azi
simons
latvia
zoe
inoculations
nextera
jays
##وج
##iffer
##irez
barbers
subside
##hoe
pioneered
geopolitics
divestment
paintings
iteration
invoices
segregated
dap
xero
exel
chloe
trench
##asta
handb
23rd
consultancies
spectacle
nda
##eder
alistair
saj
061
clarence
aeg
cboe
dkk
heck
woe
stripping
poetry
villagers
bracket
##vic
##isto
modelled
menus
nanob
tremendously
unrestricted
xenophobia
hirosh
farfetch
gore
##ateurs
plumb
sob
##eyer
obese
csr
dormitories
tongue
mondelez
##ilaterally
mered
pors
ong
maf
resisting
kickstart
entitlement
unravel
rotter
unicorns
alpine
##cill
##سب
muchos
labcorp
##apper
rigged
nazis
politicized
alejandro
lieutenant
aub
duly
stint
teaming
buildup
copd
catar
pdfdate
adaptability
multiyear
prioritization
albany
distractions
enthusiasts
petersburg
стран
biomarker
dart
speculated
skipping
clinicaltrials
armes
feminist
lubric
landslide
beforehand
angl
##olester
resurgent
zelensky
pavilion
##dis
##مال
theguardian
##url
enbridge
offit
agro
financiers
avers
apo
##енно
recalling
soros
##ания
##ومن
algunos
sse
##eer
##uli
innovator
hsi
mansion
tonga
interdepend
dovish
hinge
##anan
##elier
##agasc
disen
presumed
##raf
enjoyable
affiliation
nvx
replenish
counterfeit
outnumbered
refrigeration
##esta
##ifax
##ellular
happily
##afta
aggregates
##ridges
accumulate
hampering
haynes
brewers
gente
irrevers
motorcycles
icahn
fork
stalling
imposes
servant
desmond
defy
classmates
grossman
cheat
shouted
precipit
zynga
carnegie
ihr
rege
winn
overturned
supremac
purported
foll
gina
chizu
corning
banana
smithfield
trogain
##immers
##stick
overth
remarked
##liners
melania
surroundings
sticky
motivations
folding
gallons
revolver
replicating
flattened
mufg
##gling
chilling
leah
spinoff
##izo
manning
elena
dealings
bites
worthwhile
captive
utilise
lyrics
##akrishnan
aborto
nanotechnology
nphet
ew
ما
##rig
simulate
devil
##beans
mammals
##ithromycin
##atra
##erclass
cyst
harmless
butterfly
reimagining
cows
hok
stokes
reside
scri
##pring
revpar
singled
macdonald
subsidized
baba
hoffman
fletcher
paw
tina
sapp
##osexual
calais
artwork
macroph
eaten
4k
bg
rages
tara
recib
monarchy
doha
harley
ethos
budgetary
kurz
deliberations
sneeze
clayton
hla
##уд
##unc
daylight
glaring
entretien
##eson
heap
limerick
councill
recruits
bicycles
ernst
redevelopment
docusign
##db
indis
##oglu
placements
hacer
##kat
##لسط
##ongh
##agar
wayfair
artem
breakaway
sportswear
ramirez
velodyne
gorge
fulfilment
azd1222
reparations
cid
##stant
agar
lofty
bondholders
terrific
ballistic
unmut
livestreaming
wreck
dz
как
##די
##asz
soars
moons
banners
locks
farrell
obsession
neutroph
complication
dominates
cummins
leonardo
mismatch
feng
nib
qat
minis
anno
centro
parall
slope
sufficiency
disposed
prosecutions
tiered
lecture
superspread
egalement
href
whip
hail
acron
regained
extortion
tapest
insistence
##advisor
tiempo
##hc
##vir
##eterm
beigene
unilaterally
equil
challengers
logs
tackled
uncharted
remediate
bundesliga
recyclable
stainless
hairdressers
appraisal
zhejiang
رايتس
prue
detects
##denberg
mdash
distributes
evacue
radiology
هيومن
##dad
theod
##illips
assam
ratified
warnermedia
keny
doorstep
cpc
negligible
wnba
meredith
emper
24th
multivari
snar
concentrating
cigna
dizz
jos
mec
##كل
##onial
unprof
##athing
runaway
acquir
choi
exempted
##وتش
scripps
stoke
frug
haemat
donnell
##terneh
turf
juggling
bests
dosed
##jar
shal
##osto
crp
braces
counters
screw
renewals
madh
karnat
unicredit
francesco
thrombocy
eradication
ووتش
accret
requisite
doctoral
tuning
favoured
202009
depressive
sofi
capitalise
pantheon
archipel
frydenberg
##buds
yee
##pod
##03
##roft
shades
ence
immens
irving
apologise
karnataka
dah
yelp
##elets
endocr
##incts
chegg
favorably
eagerly
proclaimed
−0
asos
prere
pleth
twtr
##erta
macroeconom
exhausting
accidental
congregate
kosovo
videoconference
bermuda
wyndham
3x
lle
##iard
##blog
##ят
estad
sharks
obey
1960
coincidence
concede
appliance
counselling
mural
invade
retali
difer
visions
virulent
videoid
cargill
eclipse
burchell
ats
b2c
paz
##91
currentvideoid
nextvideoid
artisan
videoendslate
containerclass
remembertime
movetonext
playerid
1966
earthquakes
videndslate
pinnedplayer
##eplayer
skyscr
unmutecta
containerclassid
movetonexttimeout
gim
guru
##paces
##itu
saunders
bloss
facil
labrador
081
1971
upscale
ivy
##electric
hydraul
mbs
عام
##zig
##central
hurry
cooperating
mecca
##يع
inmate
##ulatory
byr
##oday
offence
##ianna
directorate
violencia
cerb
sneak
boasted
kirkland
rory
##61
##amins
exile
crimea
##232
wardro
vibe
haitian
biorxiv
##groups
induction
relacion
serology
poon
medicinal
##ogenous
##from
martial
contemplating
baldwin
pertinent
hace
taco
aso
meyers
cried
retool
gripped
hopeless
freeland
bonduelle
malt
snp
torch
xiao
emanuel
adren
guo
faring
microorgan
soybeans
shaky
muhammad
unrecogn
##он
quien
defences
midland
heavens
reckons
naphtha
liang
##eti
##ientos
murthy
solarwinds
outfits
arrears
lash
rin
tidal
yong
##rio
monaco
eva
formulated
##hne
staffer
cnw
devot
roblox
vanessa
kilometre
privileges
explanatory
datalayer
mishand
dome
pamp
##tv
##وف
martha
strade
cait
dani
boyd
kirsten
tjx
lok
ome
##hots
##bies
##ско
cog
preexisting
##طلاع
gretchen
c3
chave
unplanned
##isted
multib
optimisation
gmv
breakdowns
##iotic
faithful
manipulate
tiene
jacqueline
##02
##reuters
##uling
pries
stealth
neutralisation
fiduci
heterologous
specimen
rotterdam
tapestry
mets
vind
agendas
crab
##erna
uncondition
bioscience
caregiving
bacardi
elicited
ck
##game
##zu
tras
alla
opposes
28th
insightful
##peace
пред
assaulted
unnecessarily
lodged
kristen
gos
##orient
##usk
haber
##raer
grams
smashed
slips
socialism
dipping
generals
##ueling
shuts
mcn
motive
##raine
titans
homicide
frederic
tolower
goggles
bax
zs
unter
##uding
phasing
blows
capitalisation
clem
dij
creditor
ledger
okta
urbanization
plasm
tolowercase
b1
cision
kem
sip
##naires
##eard
marred
scars
venus
porque
nueva
substring
regexp
gors
hote
neth
coronary
involunt
consultado
paula
trimestre
neurology
orchestra
khalifa
dud
rakh
##خر
##quisite
disrupts
termed
devote
liberia
flores
##acterial
tenders
jacques
recycle
при
wolves
unexpl
gorman
hpe
##uent
discontent
freest
courtroom
conversions
synergy
telematics
leukemia
tying
##anian
##stall
##aci
##apes
blessed
oppenheimer
harding
packers
stoppage
rosy
tg
##ocaps
seph
belfast
entrust
mena
fluores
clientele
lucid
stripe
redesigned
cain
saints
yad
##ма
##izio
fink
boil
ifc
##ricks
##ptic
leftist
daniels
darkest
explosives
actuarial
accretive
feld
sains
sinks
##zier
undercount
devolved
hedgies
footsteps
licens
certify
madagasc
##easy
axios
snapping
cottage
bury
racked
tate
imperson
needles
lai
internship
dubious
hawks
riverside
pichai
tamb
##aise
##bres
##org
##util
alarms
explic
##rowing
flipped
cyril
structurally
hindsight
snapchat
##ныи
microphone
##ocapsid
rous
yuk
cof
serocon
homegrown
payload
sensation
rouge
plethora
shiv
##akash
sped
amel
trusting
crossroads
frequencies
discouraging
quadrup
tpg
landscapes
egan
lank
##yip
##usters
##174
reconsid
recapital
unconscious
rooftop
celt
eo
ozone
v2
peu
apples
adjusts
nasoph
bloggers
wolfe
siegel
kathleen
tianjin
boll
##gang
##ез
##icy
alum
uptr
estee
##flower
##worthiness
catalonia
thrombocytop
##oons
##رض
##imer
##sek
quoting
famine
angles
sono
praising
mpc
brewery
##funded
secrecy
stalls
consummation
auc
##97
##agawa
##reatment
tales
blackberry
nucleocapsid
interfering
incentivize
cousins
surrender
sketch
boulder
coates
##igham
##ako
secures
aches
parallels
gugg
##eren
outlier
condol
##amentos
civilization
##limab
biodegr
rfid
abnormalities
discrepancy
execs
oven
##zin
weber
spice
arlington
researched
fairer
crowdfunding
1887
manitoba
kv
##adoc
likened
##uala
kneel
calor
standout
dispensing
beatrice
##scale
pooling
mentorship
scholarships
##nos
##──
##adable
##onged
simone
achieves
secretariat
disembark
claudia
##britain
wta
grips
erit
navajo
colorful
##reported
turkmenistan
##aru
anil
reprie
crc
pediatrician
bosnia
endanger
tnf
coworkers
mauritius
##oia
theh
##stood
isle
marg
##ermo
wraps
suspends
icici
nadu
myeloma
metaphor
immensely
dich
##pit
##idine
##ayev
scrapping
engel
confidently
azithromycin
wreaked
hull
##ilor
##esson
chern
unadjusted
blames
checklist
vox
tripoli
sinn
photographers
slumping
algorithmic
tornadoes
naf
##mor
##bol
##olins
##oreal
crescent
burgers
selectively
stapled
refrigerator
coleman
bachchan
dolphins
cai
freak
jb
joanna
autopsy
buffers
disappearing
assassination
##wu
shand
carson
confisc
##iele
stressors
aumento
##92
##amount
schiz
wherein
espana
saturation
tug
##buch
##entech
inciting
policyholders
boarded
crosses
sorted
palli
dashed
ام
##ков
bln
bless
##azioni
curbed
chatted
zealanders
coffin
luv
multiplied
flavour
gouging
juvenile
##yi
##ון
##ку
shri
fra
impasse
intro
propens
1978
embraces
anonymized
##انون
huntington
disagreed
flushing
lupus
colossal
aversion
이
##bee
amusement
concurr
refug
##worked
splitting
towel
bathrooms
jihadist
d614
shrew
suvs
traps
##weed
broadcasts
micheal
erg
noodles
ominous
bible
yur
cholester
haar
compost
undrawn
##weights
yorker
wearer
georgieva
revolt
enormously
laureate
giov
unib
dispose
cleanliness
##oxide
intermediaries
fug
och
exeter
rai
domic
windfall
superpower
trucker
sparkling
ptsd
schizoph
node
##estar
sabot
unease
manera
dayton
donnel
milhoes
26th
scientifically
apiece
gladys
hdfc
chavez
deze
bruk
traveller
packard
##ottrell
##franch
chanting
aop
nosed
##anos
##imal
exor
appal
##object
klopp
vitamins
heinrich
geometric
metallurgical
mio
zal
##daily
seu
drags
providence
flan
grupp
homebuy
##aphyl
damasc
bottomed
##iena
tayyip
##olicited
##733
dye
melanoma
rationing
vivek
hotez
moll
sond
##kata
adul
leach
noel
##inted
humane
##erco
skipped
merging
conjug
accreditation
rift
##pear
##lace
##ше
whale
annoy
flesh
bannon
travers
geophys
condens
garrett
ringing
vocational
culinary
bottleneck
bianche
##asthan
ccs
java
nus
##bps
##יר
interchange
##ignant
##ielle
historians
doctrine
traumat
habitats
thomsonreuters
undergoes
pancreat
dewine
b2
dale
##onics
##akin
needless
legends
probes
ballet
tempted
contradictory
abbrevi
cps
##ths
##osal
##therapy
##ieves
roomm
handc
etihad
faulty
##acio
repro
corro
professions
squarely
##501
dearth
serbian
9bn
p2
##eled
acs
perkins
peek
emit
portals
cancels
denim
biosecurity
rajasthan
rupee
archipelago
##inho
indie
sothe
dole
annuity
grids
informacion
chairperson
prosper
3000
##anches
deposited
depressing
embraer
mildly
stemmed
الاطلاع
descended
sainsbury
cholesterol
##loo
preoccup
##umps
embod
vertex
honesty
hcv
muller
decorated
hano
kfc
##qa
##اف
##ingo
ador
finest
crimin
segund
goldberg
##folk
fairs
pickers
alberts
bahamas
bogota
newcomers
e3
einer
additives
purchaser
homeschool
kenosha
nigel
flagging
pbs
prague
preterm
##eport
insane
customize
objected
##ankar
immunologist
sequoia
palestine
##alis
conve
ops
##verse
conducive
furloughing
sophia
rutgers
ronaldo
tarnished
sia
##atu
coated
hasten
##tex
27th
telcos
holt
protestors
extremes
absorbing
lodge
jungle
sacrificing
fay
iga
kass
##loud
##ectal
resting
##atern
euronext
bushfires
##governmental
roadblocks
couture
namibia
multibillion
bodes
jok
teng
zients
##му
abr
realiz
schoolchildren
sunk
##adora
dinners
hunters
##699
eduardo
malignancies
hech
ux
wob
##houn
##chet
sabre
rox
##ittal
sailings
dashboards
##colm
evacuees
garg
ama
disresp
interle
meticul
mortal
contrasts
spinco
delegate
inoculate
revisiting
nurture
focussed
harg
##camp
##lates
##icting
##otide
sumo
##soon
lowers
steak
junho
caval
electroly
##uesta
hirs
jah
sack
##fax
inver
illusion
koreans
harming
magnet
cannon
microbiome
tame
yacht
##fact
bye
abi
primark
iris
microgr
##obank
honoring
cabins
contemplate
enriched
sephora
schizophren
ares
youngsters
biochem
kinase
reinvestment
midsize
kavanaugh
appalach
##رك
sti
homebuild
##atico
purchasers
deepens
panicked
texture
##uffs
negotiator
cocon
recharge
tecnolog
endowment
d8
kost
l1
##tops
##may
sein
enlisted
shea
esto
subsided
falsehood
unmatched
microscopic
ebitdare
bk
wird
##nom
sua
spawn
##soff
##tainer
##rotein
replacements
bullard
colorectal
miranda
endangering
outweighed
prese
deluge
purse
##atsu
savage
hrc
1949
hewlett
bish
herman
icr
mired
pots
malcolm
psychologists
polyester
sneezing
resembles
encephal
##frey
assaults
emerson
salad
goodness
unsolicited
expedition
emperor
tav
tard
##lake
##ativo
##omod
yougov
crane
depuis
aspire
terribly
##ста
bumper
abdullah
belarusian
jaguar
buddhist
##urations
whirl
fridge
##asted
headphones
الخ
mahm
chopra
lapse
nand
ntt
shade
nej
energies
flir
50th
whitehall
fischer
selfie
##trump
guaranteeing
thermometers
solemn
revered
pengu
lesbian
ipl
somm
©2022
surrey
tuesdays
surveying
##ophone
workspaces
migrating
##zzo
oatis
remeasure
efect
kerr
##umbs
momento
mandarin
silic
garn
chapman
desperation
mobilization
mhra
compressed
reconciled
mashable
marquee
submarine
porsche
vgm
##vik
##apa
invoke
##awed
characterize
##2373
praying
uzbekistan
verg
##اس
upsw
belly
brokered
erm
wrongly
ebb
maple
kjercich
reprieve
fannie
kob
##rag
##qing
inroads
sperance
timeliness
eugene
herbal
nutrients
grabs
exclusivity
##statement
hanoi
fh
vick
vaugh
viva
##mail
##לסט
##esto
ame
crafting
averse
barre
excuses
webster
julio
elevation
cogniz
##lit
##abouts
##acker
braced
##ovir
speedway
conscience
tutu
hovered
pseudonym
ump
hepa
underweight
##adeh
halts
artificially
trailers
stratified
lamented
videogame
preseason
##human
##יה
stole
##ulo
shab
atms
orang
schwar
reds
technologically
magnific
pepsi
melanie
ccr
durch
gior
ved
yeast
limb
##ximab
conditioned
tendered
untreated
stalin
madagascar
##81
ston
saude
sonoma
bullishness
vertically
carnage
ninety
sheridan
dupont
jihadists
aggravated
forging
##endi
agri
##ollen
takeovers
grocer
installments
dysp
tid
zombie
##imating
unterneh
antico
##heets
constituted
quantified
cocaine
sidd
phenomena
mckenzie
brigham
revising
everbridge
scrip
##hoot
microorganisms
damascus
##sta
##uria
##allah
invaded
doomed
raids
liam
fallon
specialties
kobe
truckload
cbp
predominant
sterilization
decoupling
unimaginable
otras
rasp
pasteur
greenpeace
##itaire
##ении
obstetric
discontinue
shumaker
sotheby
oxim
thun
##onso
reese
##ryn
polo
roiled
sita
hotter
telework
disinfected
benedict
prow
leer
abiy
accor
ari
roaming
aplic
destiny
countering
thrived
levelling
paralyzed
cbc
fcf
vending
chape
##onda
estates
potatoes
cdp
simplifying
hugs
disaggreg
laughter
reimpose
ainsi
##jun
##inness
decry
##ianne
##assing
postseason
headset
resourced
shepardson
guggenheim
clout
starved
eighty
eyeb
deutsch
##cm
##ול
formulate
originations
dogged
headsets
##john
blinds
coty
propensity
jaim
ym
##vana
choke
2020s
intergovernmental
estos
visually
etat
trackers
finalists
finalize
lander
dissol
pitfalls
[...]
